const unsigned char model[] = {
  0x20, 0x00, 0x00, 0x00, 0x54, 0x46, 0x4c, 0x33, 0x00, 0x00, 0x00, 0x00,
  0x00, 0x00, 0x12, 0x00, 0x1c, 0x00, 0x04, 0x00, 0x08, 0x00, 0x0c, 0x00,
  0x10, 0x00, 0x14, 0x00, 0x00, 0x00, 0x18, 0x00, 0x12, 0x00, 0x00, 0x00,
  0x03, 0x00, 0x00, 0x00, 0x84, 0x24, 0x00, 0x00, 0x90, 0x1c, 0x00, 0x00,
  0x78, 0x1c, 0x00, 0x00, 0x3c, 0x00, 0x00, 0x00, 0x04, 0x00, 0x00, 0x00,
  0x01, 0x00, 0x00, 0x00, 0x0c, 0x00, 0x00, 0x00, 0x08, 0x00, 0x0c, 0x00,
  0x04, 0x00, 0x08, 0x00, 0x08, 0x00, 0x00, 0x00, 0x08, 0x00, 0x00, 0x00,
  0x0c, 0x00, 0x00, 0x00, 0x13, 0x00, 0x00, 0x00, 0x6d, 0x69, 0x6e, 0x5f,
  0x72, 0x75, 0x6e, 0x74, 0x69, 0x6d, 0x65, 0x5f, 0x76, 0x65, 0x72, 0x73,
  0x69, 0x6f, 0x6e, 0x00, 0x0d, 0x00, 0x00, 0x00, 0x30, 0x1c, 0x00, 0x00,
  0x18, 0x1c, 0x00, 0x00, 0xe8, 0x1b, 0x00, 0x00, 0x9c, 0x1b, 0x00, 0x00,
  0xc4, 0x1a, 0x00, 0x00, 0xbc, 0x1a, 0x00, 0x00, 0xbc, 0x17, 0x00, 0x00,
  0xb4, 0x17, 0x00, 0x00, 0xac, 0x17, 0x00, 0x00, 0x2c, 0x00, 0x00, 0x00,
  0x24, 0x00, 0x00, 0x00, 0x1c, 0x00, 0x00, 0x00, 0x04, 0x00, 0x00, 0x00,
  0x6a, 0xe3, 0xff, 0xff, 0x04, 0x00, 0x00, 0x00, 0x05, 0x00, 0x00, 0x00,
  0x31, 0x2e, 0x35, 0x2e, 0x30, 0x00, 0x00, 0x00, 0x4c, 0xe3, 0xff, 0xff,
  0x50, 0xe3, 0xff, 0xff, 0x86, 0xe3, 0xff, 0xff, 0x04, 0x00, 0x00, 0x00,
  0x70, 0x17, 0x00, 0x00, 0x3b, 0xe6, 0x2a, 0xfc, 0x23, 0x51, 0xd3, 0x19,
  0x0b, 0x43, 0xed, 0xef, 0x10, 0x34, 0x2b, 0x00, 0x1e, 0x2f, 0xe0, 0x46,
  0x45, 0x15, 0xd3, 0x06, 0xe3, 0x00, 0xf5, 0xe4, 0xc6, 0x29, 0x43, 0xeb,
  0xf6, 0xd7, 0x3d, 0xb4, 0xb9, 0x11, 0xf6, 0x42, 0x0e, 0xfe, 0x4b, 0xf8,
  0x16, 0x2d, 0xfb, 0xf3, 0x19, 0x3d, 0x4e, 0x32, 0xdc, 0x19, 0x30, 0xbe,
  0xc1, 0xdb, 0xc3, 0xec, 0x2c, 0xd7, 0xf0, 0x0c, 0xec, 0xf1, 0x44, 0xe4,
  0xf1, 0x00, 0x32, 0xb9, 0xce, 0x6a, 0xfb, 0x0a, 0x1d, 0xc5, 0x18, 0xa3,
  0x28, 0xe2, 0xc0, 0xf5, 0xd8, 0x15, 0x2a, 0xd0, 0xf8, 0xe0, 0x3b, 0x46,
  0xe0, 0xd7, 0x1b, 0x07, 0xfd, 0xee, 0x04, 0xa5, 0xdc, 0xb2, 0x2e, 0xb0,
  0xdf, 0x27, 0xea, 0xce, 0x11, 0xd8, 0x2d, 0x23, 0xcd, 0xed, 0x19, 0xd0,
  0x1d, 0xdd, 0xfb, 0xed, 0x3d, 0x77, 0x10, 0xe0, 0xf0, 0x1b, 0x14, 0x5d,
  0x34, 0xec, 0xf3, 0x20, 0xbd, 0x25, 0x42, 0xc6, 0x02, 0xf8, 0xe6, 0x05,
  0xf2, 0xc3, 0xc4, 0x10, 0xed, 0xea, 0x05, 0xd0, 0xd5, 0x9b, 0x07, 0x00,
  0xe8, 0x26, 0x58, 0xb3, 0x02, 0xcf, 0xed, 0x19, 0xe0, 0xdc, 0xa1, 0x87,
  0x2b, 0x23, 0x33, 0x13, 0x01, 0xae, 0x2f, 0x61, 0xf8, 0xab, 0xf4, 0x52,
  0x54, 0x27, 0xe1, 0xbc, 0x57, 0xf8, 0x2b, 0x28, 0x67, 0x64, 0x08, 0xf7,
  0xf3, 0x10, 0x08, 0xae, 0x62, 0xf7, 0x3c, 0xe8, 0x28, 0x1a, 0xd9, 0x0b,
  0x2e, 0xbd, 0xd7, 0x41, 0x03, 0x68, 0xdc, 0x32, 0x14, 0x16, 0x0f, 0x0f,
  0x15, 0xb8, 0xe8, 0xb3, 0xea, 0xf7, 0xaf, 0xc3, 0x31, 0x24, 0x3e, 0xed,
  0x34, 0x13, 0xd5, 0x0b, 0x1e, 0xfa, 0x2b, 0xe9, 0xe9, 0x20, 0xc8, 0x4a,
  0xff, 0x20, 0xce, 0xdc, 0x2d, 0x22, 0x2a, 0xb4, 0x09, 0x1a, 0xde, 0x13,
  0x0f, 0xe4, 0xbb, 0xf5, 0xa8, 0xe5, 0xdf, 0x17, 0xd2, 0xd4, 0xdf, 0xe7,
  0xbe, 0xfe, 0xf7, 0xbd, 0x4e, 0x31, 0xb8, 0xf5, 0x34, 0x3b, 0xdd, 0xde,
  0xc1, 0x16, 0xcd, 0x29, 0x1d, 0x0e, 0xf2, 0x30, 0xe1, 0x43, 0xe0, 0x54,
  0xee, 0xfe, 0x03, 0xfa, 0x28, 0xfa, 0xfb, 0xe2, 0xf9, 0xd5, 0xd8, 0x20,
  0xdd, 0x32, 0xfc, 0x41, 0x33, 0xe8, 0xf0, 0xeb, 0x31, 0x48, 0x2f, 0x3a,
  0xdf, 0xfa, 0xdc, 0x06, 0xee, 0xfa, 0xd9, 0xf5, 0x31, 0xdf, 0x31, 0x0f,
  0xea, 0x30, 0x37, 0xbb, 0x1b, 0x51, 0x43, 0xe5, 0xa3, 0xf5, 0xe4, 0xe6,
  0xd1, 0xba, 0x02, 0xe1, 0xce, 0x00, 0xb8, 0x08, 0x26, 0x95, 0xef, 0xe7,
  0x9f, 0x54, 0x3e, 0x18, 0x09, 0xaf, 0xd6, 0xb8, 0x4f, 0xbc, 0x0c, 0x20,
  0xd3, 0x39, 0x0b, 0xf9, 0x0f, 0x0a, 0xed, 0x33, 0xf1, 0x03, 0x57, 0x19,
  0xf2, 0xab, 0xde, 0x4a, 0x1a, 0xde, 0x09, 0xd7, 0xaf, 0x06, 0x58, 0x9d,
  0xfe, 0xc5, 0xfd, 0x07, 0x13, 0xe9, 0xbb, 0x13, 0xcd, 0x14, 0x2a, 0xf2,
  0x01, 0x31, 0x3e, 0xcd, 0x2b, 0xc4, 0x01, 0x34, 0x04, 0xea, 0x39, 0xfd,
  0x20, 0x42, 0x1e, 0x12, 0x0a, 0x22, 0x25, 0xff, 0xda, 0xe5, 0xde, 0xfc,
  0x0e, 0xe1, 0x0a, 0x06, 0x1f, 0x21, 0xdb, 0xd4, 0xb5, 0x51, 0xd8, 0xbe,
  0x23, 0x02, 0x18, 0x17, 0xb0, 0xd0, 0xf2, 0xae, 0xfb, 0x5e, 0xc7, 0xd5,
  0x34, 0xce, 0xcd, 0x08, 0x25, 0xcd, 0x1d, 0xa2, 0xeb, 0xf5, 0xce, 0x39,
  0xc8, 0xfc, 0xb3, 0x0d, 0xfb, 0x28, 0xc6, 0xb0, 0xe7, 0xdb, 0x18, 0x42,
  0xee, 0xeb, 0xee, 0x4b, 0x08, 0xee, 0x0d, 0x2e, 0xf5, 0x1c, 0x1e, 0x2c,
  0x2f, 0x16, 0x45, 0xff, 0xb7, 0x25, 0xda, 0xf2, 0x34, 0x2a, 0x13, 0x0a,
  0xeb, 0xf1, 0xef, 0x2a, 0x05, 0x00, 0xe0, 0x07, 0xf8, 0x0a, 0xd8, 0xef,
  0xe7, 0x22, 0xde, 0x18, 0xdf, 0x1a, 0x0a, 0xe5, 0x3c, 0x41, 0xf5, 0xa4,
  0x0e, 0x52, 0x9f, 0x05, 0x25, 0x1e, 0x21, 0xe9, 0x3a, 0xb0, 0x2c, 0x02,
  0xc9, 0x02, 0x55, 0x46, 0xb4, 0x09, 0x31, 0xc8, 0xcb, 0x1d, 0x25, 0xe7,
  0x61, 0xff, 0x18, 0x11, 0xb3, 0xfb, 0x1a, 0x2b, 0x37, 0xc5, 0x29, 0x01,
  0xff, 0x0c, 0x27, 0xd6, 0xda, 0xdd, 0xd3, 0x2e, 0xd3, 0xcf, 0xea, 0x49,
  0xef, 0x47, 0xe3, 0xe7, 0x04, 0xed, 0xb8, 0x06, 0x30, 0x07, 0xfe, 0x02,
  0xd2, 0x38, 0xcc, 0x54, 0x46, 0x17, 0x62, 0xe9, 0x39, 0x4b, 0xfe, 0x03,
  0xd9, 0x1a, 0xa0, 0xea, 0xca, 0xaf, 0xfc, 0x2d, 0x20, 0x20, 0xf9, 0x30,
  0x15, 0x13, 0x63, 0xd1, 0xea, 0x20, 0xde, 0x07, 0x13, 0x5f, 0x02, 0x16,
  0xf8, 0x07, 0xc1, 0xee, 0xac, 0x73, 0xf3, 0xf5, 0x01, 0x14, 0xcb, 0xf8,
  0x11, 0x08, 0xf7, 0x2e, 0xe3, 0x3d, 0x2d, 0xde, 0xff, 0xb4, 0xe1, 0xe6,
  0x53, 0xef, 0xdb, 0xf8, 0x13, 0x01, 0x28, 0x33, 0xf4, 0xd4, 0xc2, 0x12,
  0xad, 0xd4, 0x32, 0xfc, 0x0c, 0xac, 0xfe, 0xf0, 0xd9, 0x1c, 0xd1, 0x18,
  0x09, 0xce, 0xc0, 0xa3, 0x06, 0xea, 0x2f, 0x50, 0xd9, 0x0d, 0x00, 0xdd,
  0x0f, 0xe7, 0x13, 0xe1, 0xe8, 0x1e, 0x32, 0x38, 0xcf, 0x0d, 0xf7, 0x32,
  0x34, 0xd3, 0x39, 0x0f, 0x17, 0x29, 0xd2, 0xdf, 0x22, 0x18, 0xa7, 0x2d,
  0x3b, 0x02, 0x10, 0x04, 0x4c, 0x1b, 0x11, 0xe2, 0x11, 0x01, 0x28, 0xed,
  0x52, 0xe0, 0xf9, 0x27, 0xce, 0xa6, 0xf3, 0xf9, 0x66, 0xdb, 0xdb, 0x55,
  0x20, 0x1b, 0x58, 0xf8, 0xdb, 0x0b, 0xec, 0x3a, 0x3a, 0xf0, 0xd5, 0x01,
  0xbb, 0x1e, 0xd1, 0x07, 0x4f, 0xc8, 0xf1, 0xd7, 0xf2, 0xfd, 0xe3, 0x40,
  0x33, 0x52, 0x04, 0x4e, 0xe2, 0xd1, 0x9a, 0x1c, 0xe3, 0xda, 0xe3, 0x1e,
  0x12, 0xd4, 0x3b, 0x35, 0xc3, 0xd7, 0xc6, 0x37, 0xf4, 0xe9, 0x05, 0x4e,
  0x0e, 0x1b, 0x1f, 0x08, 0x3b, 0xb5, 0x0d, 0xdd, 0xc5, 0xc4, 0x00, 0x18,
  0xd4, 0x28, 0xf6, 0x09, 0xc0, 0x03, 0x19, 0xd7, 0xc0, 0x01, 0xfd, 0xdb,
  0xf3, 0xc9, 0x52, 0xb5, 0xb4, 0x19, 0x0c, 0x3f, 0xd5, 0xbb, 0xeb, 0x06,
  0x1e, 0x52, 0xce, 0xe4, 0x30, 0x25, 0xb5, 0x3b, 0xf7, 0x03, 0xee, 0xe0,
  0x23, 0x50, 0x18, 0xf5, 0x0b, 0xc6, 0x0f, 0x9f, 0x29, 0x13, 0x2b, 0x1b,
  0xa2, 0x03, 0x21, 0x4a, 0x56, 0x43, 0x0b, 0x02, 0xb7, 0x0b, 0x18, 0xe7,
  0xa5, 0x0d, 0xd9, 0xf6, 0x28, 0xee, 0x14, 0xb1, 0x03, 0xde, 0x46, 0x07,
  0x2f, 0xc5, 0xe6, 0xf3, 0x09, 0xdb, 0xf1, 0xee, 0x1d, 0x21, 0xfc, 0xc1,
  0xc7, 0x62, 0x22, 0x2f, 0x23, 0x26, 0x3b, 0xd4, 0xb0, 0x0f, 0x39, 0x09,
  0x1f, 0xe4, 0xe8, 0xf5, 0xf2, 0xeb, 0x19, 0x2f, 0xf5, 0xf6, 0xff, 0xf0,
  0x22, 0x03, 0xb5, 0xfa, 0x08, 0xeb, 0x51, 0xe0, 0x12, 0xbc, 0x3f, 0x19,
  0xe8, 0xfa, 0xe4, 0x2e, 0xf8, 0xe5, 0x14, 0xef, 0x29, 0xc5, 0xe0, 0xf0,
  0xed, 0xfc, 0xda, 0xf3, 0x11, 0x13, 0x0a, 0xf7, 0xbf, 0xd2, 0xaf, 0x2a,
  0xf7, 0xd3, 0xb5, 0xa8, 0x3b, 0xcf, 0x2e, 0xae, 0xbd, 0xee, 0xd2, 0x1d,
  0x5f, 0x53, 0xed, 0x0c, 0xd5, 0xff, 0x0b, 0x61, 0x11, 0x5c, 0x21, 0x2a,
  0xc5, 0x15, 0x00, 0x07, 0xd4, 0x28, 0x09, 0x09, 0xc9, 0x49, 0xd0, 0x04,
  0xc5, 0xb9, 0xe6, 0xf3, 0xe4, 0xe6, 0xd5, 0xec, 0xc4, 0xf0, 0xf0, 0xd2,
  0xa3, 0x02, 0x27, 0xf2, 0xf0, 0x0a, 0x32, 0x47, 0x1a, 0xb9, 0x25, 0xeb,
  0xf6, 0xb4, 0x45, 0xf5, 0xf3, 0x1e, 0x5d, 0x10, 0xe8, 0x32, 0x08, 0x39,
  0x2b, 0xd6, 0x5c, 0xf5, 0xdb, 0xd5, 0x08, 0xec, 0x34, 0x2a, 0xa2, 0xc0,
  0xbc, 0x32, 0xaa, 0x1b, 0x17, 0xdd, 0x97, 0xf8, 0x11, 0x04, 0x20, 0x37,
  0xc3, 0x0c, 0x11, 0xdd, 0xa9, 0x33, 0xfe, 0xf3, 0x24, 0x4c, 0xdd, 0x3c,
  0x2b, 0xb5, 0x52, 0xe9, 0xfa, 0xd1, 0x1f, 0xe4, 0xe5, 0xe6, 0xf5, 0xf5,
  0x18, 0x28, 0xd5, 0x09, 0x31, 0xe0, 0x12, 0x06, 0x3d, 0x0b, 0x45, 0x16,
  0xd8, 0xea, 0x30, 0x17, 0xfe, 0x4b, 0x9d, 0x1c, 0xd4, 0x3d, 0xfa, 0xfc,
  0xa3, 0x17, 0xea, 0x00, 0x29, 0x0c, 0xf5, 0xa2, 0x33, 0x16, 0x3d, 0x2b,
  0xd9, 0x26, 0x22, 0x0e, 0x4a, 0xe4, 0x2a, 0x09, 0xef, 0xf3, 0x0f, 0x0f,
  0xfe, 0x4c, 0xf5, 0xe2, 0xd0, 0x04, 0xbd, 0x1d, 0xdc, 0x10, 0xf7, 0x4b,
  0x37, 0x00, 0xf3, 0x03, 0x0f, 0xd2, 0xf5, 0x25, 0xbb, 0xc5, 0xa8, 0xf6,
  0xe4, 0xd3, 0xc6, 0xb4, 0x44, 0x35, 0x38, 0x13, 0xe0, 0xd5, 0xc8, 0xcc,
  0x0e, 0xd9, 0x21, 0xfd, 0x1b, 0x17, 0x2f, 0xd4, 0xdd, 0x14, 0xff, 0xe2,
  0x02, 0x10, 0x12, 0xd4, 0xf9, 0x08, 0xe7, 0x35, 0xdf, 0x3f, 0xfc, 0x0d,
  0xf8, 0xc1, 0xd3, 0xe6, 0x19, 0xc3, 0x21, 0x1b, 0x1c, 0x21, 0x36, 0xa4,
  0xb8, 0xd7, 0xe9, 0xf2, 0xfe, 0xc4, 0x13, 0xfc, 0x21, 0x05, 0xd6, 0xfd,
  0xa8, 0xe1, 0x55, 0xf8, 0x52, 0xb4, 0x2c, 0xe2, 0xe8, 0xc1, 0x25, 0xf8,
  0xb5, 0x10, 0x00, 0x18, 0xb8, 0xe3, 0xdc, 0xfd, 0x04, 0xad, 0x28, 0x3b,
  0x14, 0x1b, 0xc5, 0x31, 0x3a, 0x0a, 0xd2, 0xf5, 0xe8, 0x3e, 0xca, 0xdb,
  0x01, 0xe2, 0x12, 0xd4, 0xd9, 0xcd, 0x19, 0x26, 0xc0, 0xeb, 0xeb, 0xf1,
  0xea, 0x48, 0xc6, 0x1e, 0xc2, 0xf0, 0xee, 0x5e, 0xa9, 0xaf, 0xf6, 0xf7,
  0x3c, 0xf7, 0xf0, 0xd5, 0x48, 0xe0, 0xb9, 0x3c, 0x3b, 0x1b, 0xba, 0xc1,
  0x0b, 0x2a, 0x09, 0x35, 0x1b, 0x11, 0xf7, 0xf9, 0x1c, 0x05, 0x0e, 0x3f,
  0xc0, 0xf4, 0x01, 0x45, 0x27, 0xeb, 0x03, 0x17, 0xca, 0x42, 0x06, 0x26,
  0xf9, 0xd3, 0xe6, 0x34, 0x17, 0xf3, 0xbe, 0x2f, 0xb4, 0xe0, 0x0d, 0x59,
  0xf3, 0x2b, 0xdb, 0xc7, 0x34, 0x25, 0xe4, 0x42, 0xa8, 0x16, 0x05, 0x3f,
  0xce, 0xd8, 0x56, 0xbc, 0xba, 0x02, 0xe6, 0x11, 0x2a, 0x9e, 0xcc, 0x07,
  0x0a, 0x39, 0x1f, 0x57, 0x2b, 0xef, 0x37, 0xf6, 0x1f, 0x04, 0x3e, 0xe3,
  0xa2, 0x2e, 0xd2, 0xdd, 0x07, 0xdf, 0x07, 0xbb, 0x00, 0x38, 0x3d, 0xf4,
  0xfb, 0x25, 0x05, 0xe5, 0x00, 0x9f, 0xdf, 0xce, 0x43, 0x1c, 0x36, 0xbf,
  0x08, 0x22, 0xdc, 0x2e, 0xb1, 0x0c, 0xec, 0xdd, 0xf0, 0xfc, 0x98, 0x30,
  0x2f, 0xc2, 0xfa, 0x33, 0x05, 0x2a, 0xcc, 0xdd, 0x0f, 0x50, 0x06, 0x08,
  0xc0, 0x32, 0x15, 0x13, 0xfb, 0xe8, 0x07, 0x3f, 0xeb, 0xd2, 0xdb, 0x06,
  0xde, 0xeb, 0xeb, 0x39, 0xb0, 0x49, 0x00, 0xe4, 0xe2, 0x0b, 0xc0, 0x46,
  0x32, 0xe8, 0xfe, 0xe3, 0xf6, 0xfb, 0x42, 0xd1, 0xd2, 0xec, 0x1a, 0x0b,
  0x0c, 0xeb, 0x09, 0x07, 0x4a, 0xf7, 0xfa, 0x54, 0x1c, 0x17, 0x2b, 0xf9,
  0xf3, 0x33, 0xcb, 0x61, 0xf6, 0x05, 0xf4, 0x38, 0x1b, 0x68, 0x20, 0x1f,
  0xfd, 0x20, 0x3d, 0xe4, 0x14, 0xca, 0x11, 0xc8, 0x35, 0xf9, 0xe5, 0xea,
  0xec, 0xbf, 0x1e, 0x53, 0xb7, 0x9b, 0xa2, 0xef, 0xd2, 0x10, 0xd3, 0xc8,
  0x25, 0x16, 0xda, 0xf3, 0xc2, 0x3f, 0xe6, 0xfc, 0x0a, 0x34, 0x21, 0x45,
  0xd5, 0x09, 0x24, 0xbf, 0x28, 0x19, 0x02, 0xd0, 0x07, 0x2a, 0xf5, 0xa0,
  0xe3, 0xda, 0x0f, 0xd3, 0x19, 0x33, 0xaa, 0xeb, 0x39, 0x19, 0xbe, 0xa9,
  0x07, 0x1d, 0x31, 0xcd, 0xee, 0x16, 0x39, 0x3e, 0xf4, 0xf5, 0x1e, 0x1e,
  0x0a, 0xf3, 0xf7, 0xbe, 0xb9, 0x1d, 0x1b, 0x3d, 0x28, 0xfd, 0xd7, 0x1b,
  0x27, 0x15, 0x46, 0xb8, 0xdf, 0x2e, 0x37, 0x4e, 0xe5, 0xfd, 0x07, 0xfa,
  0x14, 0xc4, 0xa9, 0x3c, 0xaf, 0x15, 0xe2, 0x4f, 0x3a, 0xfc, 0x19, 0xe1,
  0xbd, 0x3f, 0xf8, 0x12, 0x25, 0x55, 0x25, 0x11, 0x02, 0x20, 0xf1, 0xf9,
  0x43, 0x04, 0xfb, 0xf1, 0x36, 0x0a, 0xf4, 0xad, 0xd0, 0x13, 0xd1, 0xee,
  0x14, 0x01, 0xd5, 0x35, 0xda, 0x49, 0x29, 0x0f, 0xc9, 0x30, 0x2f, 0x9a,
  0xf5, 0x60, 0xe2, 0x34, 0x00, 0xd8, 0x30, 0xe1, 0xea, 0x0c, 0x00, 0x1d,
  0x20, 0x19, 0x18, 0xa5, 0x16, 0xef, 0x41, 0xe8, 0x0e, 0xca, 0x48, 0x3a,
  0xac, 0x15, 0x1a, 0xc7, 0xd1, 0xb1, 0xdf, 0x19, 0x07, 0xe2, 0x0e, 0xec,
  0xc1, 0xe8, 0x2b, 0x36, 0x1e, 0x18, 0xe4, 0xa1, 0xf4, 0xcc, 0x0d, 0x20,
  0xfc, 0x00, 0xd4, 0x06, 0x17, 0xf3, 0x3d, 0xee, 0x11, 0xf3, 0xb4, 0x08,
  0xeb, 0x4d, 0xfd, 0xb3, 0xde, 0x1a, 0xb0, 0xf5, 0xc9, 0x00, 0xed, 0xe3,
  0xf3, 0xac, 0x03, 0x31, 0x00, 0xb3, 0x36, 0x28, 0x28, 0x48, 0xa5, 0xe5,
  0x13, 0x3d, 0x37, 0x35, 0xfb, 0x04, 0xd3, 0x1c, 0xfe, 0xf4, 0xeb, 0xc0,
  0xcb, 0xd7, 0x0c, 0xd5, 0x01, 0x4e, 0x3b, 0x45, 0x2b, 0xff, 0xf8, 0x18,
  0xfc, 0x5e, 0xd4, 0x0e, 0xda, 0xf8, 0x36, 0x00, 0xb0, 0x06, 0x18, 0x6c,
  0x16, 0x57, 0x01, 0xe5, 0x1a, 0x05, 0x0b, 0xa5, 0xba, 0x03, 0x0b, 0x1c,
  0x1b, 0xf7, 0x53, 0xdb, 0x13, 0xb8, 0xbe, 0xe1, 0x15, 0x11, 0x42, 0x19,
  0xf5, 0xb5, 0x55, 0xe5, 0x3f, 0x23, 0x32, 0xd3, 0xa0, 0xb1, 0x37, 0xb0,
  0x03, 0x29, 0x2b, 0x05, 0x18, 0xef, 0x05, 0x62, 0xd4, 0x36, 0xf4, 0x2a,
  0x28, 0xdb, 0xcd, 0x1c, 0x10, 0x10, 0x29, 0x05, 0xb7, 0x08, 0xc6, 0x29,
  0x1d, 0x0d, 0x30, 0x11, 0xce, 0xef, 0x10, 0x44, 0xb7, 0x20, 0xe1, 0x11,
  0xb5, 0x29, 0x02, 0xcb, 0xf6, 0x55, 0x17, 0x5b, 0xc5, 0xf0, 0x4b, 0x3b,
  0x16, 0xb2, 0xf2, 0x4c, 0xc5, 0xf5, 0x12, 0x25, 0xb0, 0x26, 0x22, 0xc7,
  0xf9, 0xb2, 0xcb, 0xc7, 0x25, 0xc1, 0x19, 0xf0, 0x39, 0xe5, 0xba, 0xc3,
  0x47, 0x57, 0x19, 0x1a, 0x07, 0xeb, 0x18, 0xff, 0x0a, 0xd8, 0xcd, 0xf4,
  0x13, 0xe9, 0x07, 0xf8, 0xa1, 0x13, 0xfa, 0xf5, 0x2e, 0x51, 0x1e, 0xd4,
  0x06, 0xf6, 0xbe, 0xbc, 0x2c, 0xeb, 0x12, 0x20, 0x23, 0xf9, 0x93, 0xea,
  0x39, 0x38, 0xab, 0xd3, 0xbc, 0x43, 0x38, 0x4e, 0x3e, 0xd7, 0xd1, 0xec,
  0x21, 0x1c, 0xf5, 0xef, 0xa5, 0x24, 0x2d, 0x0e, 0x17, 0x1b, 0xd9, 0x0c,
  0x2a, 0xf1, 0xe3, 0x19, 0xcc, 0xef, 0x35, 0x05, 0x4b, 0xd1, 0xec, 0xf7,
  0x06, 0x09, 0x0e, 0xf8, 0x53, 0xcb, 0xe7, 0x26, 0x0d, 0x04, 0xeb, 0xbb,
  0xfc, 0x23, 0xd7, 0x19, 0x2a, 0x11, 0x0f, 0x2a, 0x21, 0xb6, 0x16, 0x13,
  0x22, 0x2f, 0x13, 0xe6, 0xfc, 0xc9, 0x1b, 0x30, 0x0b, 0x37, 0xf1, 0x18,
  0x00, 0x14, 0x07, 0xda, 0xdd, 0xdb, 0x01, 0x01, 0x14, 0x1f, 0x14, 0xd4,
  0x14, 0x01, 0x18, 0xda, 0xd5, 0x3e, 0x21, 0xeb, 0x5f, 0x12, 0xe9, 0x66,
  0x35, 0xf0, 0x3d, 0xe3, 0x0a, 0x34, 0xe1, 0x30, 0xe9, 0xb9, 0xfb, 0xae,
  0x14, 0xdf, 0x33, 0xe8, 0x39, 0x01, 0x34, 0x45, 0xc9, 0x23, 0x3f, 0x04,
  0xc7, 0xff, 0x21, 0x13, 0xf4, 0xed, 0x1a, 0xc8, 0xf2, 0xbd, 0x16, 0x25,
  0x01, 0x47, 0x23, 0xef, 0xed, 0x33, 0x4e, 0x00, 0x1f, 0xe1, 0x25, 0x35,
  0x0e, 0xa4, 0x0c, 0xfc, 0x57, 0x24, 0xc4, 0x2a, 0xc3, 0xf8, 0xfa, 0x2f,
  0xcb, 0xb3, 0x31, 0x0c, 0xfe, 0xc9, 0xc3, 0xf4, 0xd9, 0x4c, 0xbd, 0x18,
  0xb2, 0xf3, 0x03, 0xb6, 0x21, 0xab, 0x2b, 0x1b, 0x0b, 0xfb, 0x29, 0xc5,
  0xa6, 0x29, 0xdf, 0xc2, 0x38, 0xfc, 0xdf, 0xbf, 0xf6, 0xb4, 0xc3, 0xfb,
  0x21, 0x0f, 0x44, 0x27, 0x03, 0xb3, 0x02, 0x34, 0x3c, 0xe1, 0x1f, 0x52,
  0xf5, 0x04, 0x07, 0x0a, 0xda, 0xdc, 0xb5, 0x19, 0xea, 0x1b, 0xf6, 0x21,
  0x51, 0x23, 0x21, 0x19, 0x57, 0xc6, 0x55, 0xf8, 0x19, 0x3c, 0xdc, 0xcb,
  0x08, 0xde, 0x11, 0xa6, 0x41, 0x04, 0xd7, 0x10, 0xec, 0x03, 0x3c, 0xfe,
  0x17, 0x37, 0x12, 0x15, 0xd6, 0x2e, 0x07, 0x38, 0xce, 0x1b, 0x28, 0xe4,
  0xdd, 0x04, 0xe7, 0xdb, 0xaa, 0x0b, 0xea, 0x2d, 0x12, 0xc8, 0x19, 0x12,
  0xf2, 0xf9, 0x0c, 0x32, 0xe9, 0x2e, 0xd5, 0xea, 0x29, 0x24, 0x05, 0x1c,
  0x00, 0x07, 0xd2, 0x06, 0xa5, 0xd9, 0xfe, 0x06, 0x28, 0x16, 0x35, 0x18,
  0x3a, 0xee, 0xbf, 0xec, 0x3b, 0xd1, 0xfa, 0x25, 0xf1, 0x02, 0xe6, 0x37,
  0xee, 0xea, 0xe5, 0x4b, 0x9f, 0xff, 0xf3, 0xff, 0x18, 0xff, 0xf6, 0x02,
  0xbd, 0x31, 0x33, 0x4f, 0xde, 0xfe, 0xca, 0x42, 0x00, 0x25, 0xd2, 0x30,
  0xc1, 0x53, 0xb3, 0xb2, 0x26, 0xb2, 0xd7, 0x04, 0xd7, 0x1b, 0xfa, 0x4d,
  0x1e, 0x18, 0x4e, 0x4b, 0xeb, 0xcb, 0x36, 0xfd, 0x20, 0xd3, 0xf3, 0xdf,
  0xfd, 0x05, 0x16, 0xea, 0x09, 0x2e, 0x3e, 0x15, 0xeb, 0x29, 0x38, 0xc4,
  0x31, 0x3e, 0xc3, 0x17, 0xe4, 0xc9, 0xf8, 0x31, 0x2e, 0x45, 0x08, 0xdf,
  0x23, 0x46, 0xfd, 0xf5, 0x5c, 0xd4, 0xd0, 0xef, 0xc6, 0xe9, 0xff, 0xe2,
  0xa9, 0x12, 0x2b, 0x0c, 0x0e, 0x35, 0x44, 0xcc, 0x04, 0x23, 0xb8, 0x25,
  0x08, 0x06, 0xe4, 0xfa, 0x04, 0x14, 0xc5, 0xfc, 0x1d, 0x03, 0xeb, 0x4d,
  0x2c, 0xfc, 0xaa, 0x37, 0x55, 0x02, 0x27, 0xb0, 0x00, 0x58, 0xff, 0xc9,
  0xb0, 0x03, 0xdf, 0xf9, 0x01, 0xa6, 0xee, 0x10, 0x34, 0xb7, 0xe9, 0x01,
  0x3b, 0x0c, 0xfc, 0xd1, 0x29, 0x3f, 0xde, 0x45, 0xc7, 0x0e, 0x26, 0xee,
  0x19, 0x3a, 0x08, 0x51, 0x54, 0x3c, 0x0d, 0x01, 0xaf, 0x22, 0xd5, 0xce,
  0xd9, 0x4f, 0x9d, 0x08, 0x2d, 0x04, 0xda, 0x3e, 0x1d, 0xd4, 0xc9, 0x32,
  0x1c, 0xdf, 0xc9, 0xd5, 0x5e, 0xdc, 0x24, 0x38, 0xea, 0xe5, 0xfb, 0xd3,
  0x55, 0x11, 0xd1, 0x2c, 0xf2, 0xe4, 0x12, 0x1d, 0x04, 0xcd, 0xe8, 0x2c,
  0xc2, 0xce, 0x15, 0xe9, 0xe8, 0xdc, 0x0b, 0x30, 0xda, 0x01, 0xe2, 0xac,
  0xcd, 0x30, 0x14, 0x1c, 0xfe, 0x5f, 0xfe, 0x39, 0xf1, 0xf4, 0xd3, 0x35,
  0x18, 0x06, 0x1c, 0xb2, 0xc4, 0x2d, 0x1c, 0xfc, 0x20, 0xd8, 0xf3, 0xee,
  0x2c, 0x48, 0x58, 0xe2, 0x05, 0xd9, 0xea, 0x13, 0x03, 0x2c, 0xb9, 0x19,
  0x05, 0xe3, 0x47, 0xc3, 0x1c, 0xb8, 0xdc, 0x08, 0xf6, 0x43, 0xd0, 0x51,
  0xe1, 0x20, 0x5d, 0x2c, 0x2e, 0x14, 0xcb, 0x19, 0xd8, 0xf7, 0x1e, 0xcd,
  0x08, 0xe4, 0x22, 0x2d, 0xeb, 0xda, 0xc6, 0x46, 0x27, 0x01, 0xed, 0xc1,
  0x44, 0x0e, 0x18, 0x06, 0xd3, 0x3b, 0xbb, 0x02, 0xec, 0x2e, 0xc2, 0x4a,
  0x04, 0xb3, 0xda, 0xe3, 0x0e, 0x4c, 0x24, 0xe4, 0x11, 0xad, 0x5e, 0xc0,
  0xfb, 0x00, 0x3d, 0x57, 0x58, 0x25, 0x2f, 0x3a, 0x2e, 0xf8, 0xb3, 0xe8,
  0xd3, 0x1a, 0x30, 0x12, 0x1a, 0xc5, 0x4c, 0x3c, 0xfc, 0x2b, 0x20, 0xe3,
  0xba, 0x22, 0xeb, 0xcb, 0xce, 0xe9, 0x37, 0x38, 0xd7, 0xbd, 0xd4, 0xbd,
  0x25, 0xf4, 0xc1, 0x2b, 0x2a, 0xc5, 0x03, 0x08, 0xff, 0xfa, 0xfd, 0xd6,
  0xfe, 0xb9, 0x4f, 0xff, 0xca, 0x24, 0xd7, 0x0e, 0xa6, 0x08, 0xf5, 0xf1,
  0xcc, 0x15, 0xf6, 0x04, 0xd4, 0x54, 0xd8, 0x04, 0xd3, 0x16, 0xc6, 0x27,
  0xe5, 0xdc, 0xe6, 0x07, 0x5d, 0xff, 0xb6, 0xc7, 0x18, 0x32, 0xcc, 0x2f,
  0x15, 0x04, 0xcb, 0x5f, 0xfa, 0xbe, 0xf8, 0x58, 0xfe, 0x04, 0x1a, 0xc9,
  0xe8, 0xbc, 0x38, 0xe0, 0xde, 0xf0, 0x28, 0x26, 0x61, 0x43, 0xce, 0x14,
  0x01, 0x35, 0x62, 0xb5, 0xc8, 0x0c, 0x9a, 0x18, 0x07, 0xaa, 0xfd, 0xa3,
  0xa6, 0x01, 0xfd, 0x07, 0xcb, 0xf0, 0x2e, 0xe7, 0x09, 0xde, 0x07, 0xad,
  0xca, 0xb9, 0x3f, 0x34, 0x1b, 0x03, 0x2d, 0xf6, 0x53, 0xc3, 0x5e, 0x1b,
  0xfd, 0x14, 0xaa, 0xfc, 0xff, 0x18, 0x22, 0xb6, 0x22, 0xcf, 0x59, 0x0f,
  0xd8, 0x02, 0xfe, 0xde, 0x67, 0xad, 0x16, 0xfb, 0xc1, 0x33, 0xa5, 0xf6,
  0x05, 0x0d, 0xe9, 0xc2, 0xe0, 0xfc, 0x10, 0x1c, 0x26, 0x17, 0x45, 0xd2,
  0x0d, 0xc0, 0x17, 0x3d, 0xda, 0xe9, 0x2c, 0xf5, 0xe6, 0x2a, 0x0d, 0xe3,
  0xda, 0x17, 0x09, 0x16, 0xd1, 0x12, 0xcf, 0xfd, 0xfe, 0x1e, 0x0f, 0x27,
  0x27, 0x1c, 0x07, 0x15, 0x32, 0x01, 0xf0, 0xe5, 0xd7, 0xed, 0x11, 0x13,
  0x27, 0x23, 0x53, 0x9e, 0xf2, 0xa4, 0x75, 0x0b, 0x2e, 0x26, 0xf7, 0x01,
  0x0f, 0x1f, 0x3a, 0xd6, 0x28, 0x27, 0xf0, 0xc5, 0x22, 0xde, 0xc7, 0x14,
  0x06, 0xe9, 0x35, 0x38, 0xee, 0x2c, 0xc6, 0x34, 0xf2, 0xe4, 0x11, 0x1b,
  0x12, 0x21, 0xba, 0xe8, 0x08, 0xba, 0x04, 0xfe, 0xca, 0xa5, 0x1b, 0x36,
  0x39, 0xd5, 0xd4, 0x1e, 0xea, 0x1e, 0x10, 0x1b, 0xda, 0x4b, 0xb3, 0xeb,
  0x1a, 0x28, 0x1a, 0xf9, 0xfb, 0xb7, 0xe0, 0xa1, 0xec, 0xe6, 0xce, 0xfe,
  0x40, 0x37, 0xf0, 0xf3, 0xfb, 0xfc, 0xde, 0x29, 0xcb, 0xcd, 0x27, 0xb2,
  0xe5, 0x46, 0xf0, 0x1e, 0xdc, 0x57, 0xfa, 0x1b, 0xfa, 0x2e, 0xe9, 0xb4,
  0xbe, 0x0b, 0xe2, 0xe8, 0xaf, 0x02, 0xf7, 0xe2, 0x29, 0xfb, 0xa5, 0xea,
  0x17, 0x04, 0xc4, 0xcc, 0x01, 0xe9, 0xff, 0xfb, 0xd6, 0xed, 0xcf, 0xfc,
  0xe4, 0xde, 0xcb, 0x48, 0xe7, 0xdd, 0xf3, 0x04, 0x67, 0x05, 0xe6, 0xe0,
  0xe5, 0x1a, 0xc8, 0xfc, 0xa5, 0x15, 0xcf, 0xf8, 0x43, 0xe1, 0x48, 0x04,
  0x57, 0x32, 0x18, 0x1b, 0xf6, 0x29, 0x43, 0xef, 0xdd, 0xd0, 0xd0, 0xff,
  0x39, 0xf5, 0x48, 0xf2, 0x9a, 0x01, 0x05, 0x21, 0x0c, 0xe9, 0xe0, 0xe9,
  0xe5, 0x43, 0x4c, 0xd0, 0x96, 0x23, 0x09, 0x13, 0x48, 0x04, 0xdc, 0xe0,
  0x08, 0x15, 0xf1, 0xc3, 0x9f, 0xf8, 0x07, 0x07, 0xfa, 0x08, 0xbe, 0xc1,
  0xe8, 0x58, 0x07, 0xe6, 0x03, 0xab, 0x23, 0xfe, 0x23, 0x29, 0x34, 0xc4,
  0x21, 0x32, 0x49, 0xaa, 0xc4, 0xf1, 0xc0, 0x3a, 0x34, 0x13, 0xe6, 0x0a,
  0xce, 0xd9, 0x1f, 0x04, 0xae, 0xee, 0x12, 0x1c, 0x0b, 0x1e, 0xc9, 0xf8,
  0x40, 0xfc, 0x42, 0xf9, 0x0d, 0x10, 0x01, 0x1d, 0x3c, 0xc1, 0x0b, 0xdc,
  0xfc, 0x07, 0xf6, 0xff, 0xbe, 0xa5, 0xdf, 0xec, 0xd5, 0x58, 0xbb, 0xe7,
  0x2b, 0xe2, 0x0d, 0x37, 0xd2, 0x02, 0xb5, 0xe9, 0xcb, 0xe2, 0x06, 0xbb,
  0xcf, 0x06, 0xdf, 0xea, 0x13, 0x1f, 0xd7, 0xe1, 0xf4, 0x34, 0x0c, 0x19,
  0xe9, 0x0e, 0xc4, 0x13, 0xed, 0xb1, 0xb0, 0x17, 0x06, 0x27, 0xc5, 0x34,
  0xcb, 0xe1, 0x29, 0xb8, 0xc3, 0x1b, 0xd4, 0xc8, 0xce, 0xee, 0x2d, 0x09,
  0xd1, 0x0a, 0xe3, 0x44, 0xdb, 0x22, 0xc9, 0xc7, 0x21, 0x0d, 0x2c, 0x0d,
  0x05, 0x31, 0x45, 0x33, 0x50, 0xf2, 0x4b, 0xcd, 0x36, 0x34, 0xf8, 0x29,
  0x43, 0xf1, 0xfc, 0xf5, 0xf8, 0xd1, 0xe4, 0xf8, 0xe6, 0xe4, 0x03, 0x12,
  0xe6, 0xdd, 0x14, 0xf0, 0x35, 0x22, 0x41, 0xb1, 0x2a, 0xf7, 0xe7, 0x24,
  0x4a, 0x20, 0xc8, 0x0f, 0xa8, 0xa1, 0xb4, 0xfd, 0x47, 0x1a, 0xb2, 0xeb,
  0xd7, 0x1a, 0x24, 0x3b, 0x0a, 0xe4, 0xfc, 0xe6, 0xdb, 0x50, 0x0c, 0x12,
  0x24, 0x2e, 0x1b, 0xfd, 0xe4, 0x0a, 0xed, 0x04, 0xf1, 0xea, 0xe9, 0xbd,
  0x1f, 0xc4, 0x3c, 0x23, 0x0f, 0x1e, 0xca, 0xe3, 0xf0, 0xf0, 0xd8, 0x1b,
  0x8e, 0xf6, 0x2b, 0x42, 0xd3, 0xf9, 0xec, 0xcd, 0x5f, 0x01, 0x17, 0x64,
  0xda, 0x27, 0x00, 0x28, 0xa5, 0x23, 0xfa, 0xad, 0x11, 0x9b, 0xcf, 0x03,
  0x28, 0xdb, 0xd8, 0xef, 0x09, 0x58, 0xd4, 0xbe, 0x04, 0x21, 0x9a, 0x9b,
  0xd0, 0xe2, 0x34, 0x42, 0x0e, 0x0f, 0x97, 0xda, 0x0b, 0x16, 0x2a, 0x2e,
  0x09, 0xab, 0x03, 0x33, 0x27, 0x03, 0xd9, 0x10, 0xea, 0x5e, 0xd1, 0x3d,
  0xf9, 0xe6, 0x52, 0xeb, 0x12, 0x2f, 0xb4, 0xeb, 0x1f, 0xbe, 0xfb, 0x02,
  0xd8, 0x0b, 0xb8, 0xff, 0xfb, 0xcd, 0x17, 0xe1, 0xd8, 0xb6, 0xcd, 0x06,
  0xce, 0x19, 0x17, 0xbf, 0x38, 0xe6, 0xff, 0xdb, 0xee, 0xe2, 0xdc, 0x08,
  0x1d, 0xdb, 0x3e, 0xf6, 0x19, 0x33, 0xf7, 0x1a, 0x3c, 0xec, 0x17, 0x29,
  0x04, 0x2b, 0x33, 0x1c, 0x23, 0xe2, 0xdc, 0xfb, 0xb1, 0x35, 0x26, 0xd6,
  0xe4, 0xf6, 0x08, 0x26, 0xee, 0xf3, 0x0f, 0x19, 0x06, 0x44, 0xe5, 0xfe,
  0xd7, 0xff, 0x0b, 0xc8, 0x36, 0x18, 0x11, 0xf7, 0x38, 0x16, 0xcc, 0xdc,
  0x13, 0x05, 0xf7, 0x02, 0x61, 0x00, 0xed, 0x0c, 0xf2, 0x25, 0x1c, 0xfc,
  0x08, 0x05, 0xf0, 0x1e, 0xd2, 0xb9, 0xea, 0x0d, 0x3d, 0x4c, 0xea, 0xf1,
  0xec, 0x17, 0xe0, 0xea, 0xd9, 0xfc, 0x2c, 0x19, 0x25, 0xf2, 0xe7, 0xdd,
  0xea, 0x08, 0xce, 0xcd, 0x2d, 0x07, 0xd3, 0xfa, 0x3a, 0xe8, 0xc4, 0x39,
  0x32, 0xd5, 0x34, 0xc5, 0xef, 0xf6, 0xaa, 0x0f, 0xa6, 0xea, 0x4d, 0x02,
  0xfb, 0xbb, 0x0f, 0xfa, 0x3c, 0xe6, 0xef, 0x56, 0x08, 0xcd, 0x26, 0x11,
  0xc5, 0x01, 0x1f, 0xf2, 0xfe, 0x18, 0xb9, 0x0b, 0xf2, 0xcc, 0x10, 0x52,
  0xf0, 0xb3, 0x02, 0x2e, 0x15, 0xf6, 0xdc, 0x13, 0x4d, 0xaf, 0x1a, 0xe1,
  0xec, 0x1a, 0xae, 0xf3, 0xe0, 0x04, 0x12, 0x0a, 0xde, 0x15, 0x10, 0xc4,
  0x5f, 0xf3, 0x3e, 0x00, 0x30, 0xdc, 0x42, 0xb7, 0xc6, 0xdb, 0x1f, 0x06,
  0x03, 0xcb, 0x0c, 0xa6, 0xe3, 0x04, 0x13, 0xfe, 0xfa, 0xf3, 0x3d, 0xd0,
  0x09, 0xec, 0x01, 0xa6, 0x1d, 0x5c, 0xcb, 0x37, 0xeb, 0xb6, 0x02, 0xe1,
  0x04, 0x08, 0x14, 0xe6, 0x01, 0xc4, 0x15, 0xee, 0x09, 0x26, 0xb4, 0x22,
  0xc1, 0x63, 0xe0, 0xa2, 0x20, 0xee, 0x0b, 0xf1, 0x06, 0x02, 0xfa, 0x0c,
  0x01, 0x03, 0xd2, 0xc4, 0xb8, 0xe2, 0x15, 0x22, 0xe1, 0xf6, 0x4f, 0x46,
  0x51, 0x09, 0x2d, 0xff, 0xe2, 0xd9, 0x15, 0xb0, 0x35, 0xf5, 0xff, 0x2e,
  0xd0, 0xb5, 0x0f, 0xc3, 0xfb, 0xfb, 0xeb, 0x07, 0xfb, 0xea, 0x46, 0xb9,
  0xd6, 0x22, 0xfd, 0x51, 0xfe, 0xdb, 0x2d, 0xe1, 0x00, 0xf0, 0x08, 0x24,
  0x4e, 0x3b, 0x3e, 0xdf, 0xf4, 0xc4, 0xf8, 0xda, 0x35, 0xce, 0xee, 0x37,
  0x2d, 0x05, 0xf4, 0xda, 0x00, 0xea, 0xd4, 0x12, 0x33, 0xc1, 0xdd, 0xfa,
  0xd1, 0x44, 0x16, 0x18, 0xba, 0xcb, 0xe4, 0x59, 0xf6, 0x23, 0xf4, 0x20,
  0xd0, 0xf5, 0xc5, 0x10, 0x44, 0x55, 0x06, 0xdf, 0x31, 0x0d, 0x4d, 0x06,
  0x05, 0xfa, 0xf7, 0xce, 0xf8, 0x39, 0x2a, 0xfb, 0x12, 0x18, 0xf7, 0xf0,
  0x0f, 0x27, 0x19, 0x0d, 0xe6, 0x3b, 0x56, 0xd1, 0x23, 0x24, 0x1a, 0xad,
  0xfa, 0x5d, 0xe1, 0xf7, 0xfd, 0xe7, 0xc7, 0x42, 0xe8, 0xf9, 0xfc, 0xf0,
  0xf4, 0x08, 0x09, 0xe5, 0x04, 0xba, 0xe3, 0x3e, 0x3d, 0x15, 0x14, 0xc5,
  0x1a, 0xd3, 0x29, 0x03, 0x2c, 0x27, 0x0a, 0xdb, 0x0d, 0x0b, 0x04, 0x11,
  0xef, 0xea, 0x2d, 0xb0, 0x20, 0xc8, 0xf7, 0xf4, 0xa9, 0xcf, 0x44, 0xc6,
  0x03, 0x2b, 0xd2, 0xfa, 0x03, 0xcd, 0x09, 0x27, 0x23, 0x4b, 0xe7, 0xb8,
  0xe4, 0x08, 0x04, 0xee, 0x42, 0x22, 0xf9, 0xff, 0xac, 0x20, 0x30, 0x4f,
  0x12, 0x1e, 0xd8, 0xa5, 0xf4, 0xfb, 0xbb, 0xfd, 0x42, 0x21, 0x0b, 0xe8,
  0xbe, 0xf7, 0xf8, 0x25, 0x01, 0xdc, 0x06, 0xf6, 0xca, 0xdb, 0x2e, 0x10,
  0xb0, 0x1c, 0xd3, 0x1a, 0xe6, 0xc8, 0x38, 0xab, 0x4e, 0xf5, 0x05, 0x4e,
  0xe2, 0x3c, 0x1d, 0xa9, 0x1a, 0xec, 0x0f, 0x4e, 0x0a, 0xf7, 0x4e, 0xda,
  0x09, 0xbf, 0x24, 0xbe, 0xda, 0xf0, 0x1d, 0xdc, 0xfb, 0x16, 0xd8, 0xb2,
  0x31, 0xfa, 0xf4, 0xe1, 0x1a, 0xea, 0x1d, 0x08, 0x07, 0x0c, 0x27, 0xc0,
  0xa6, 0x15, 0xef, 0xc8, 0x3d, 0x26, 0xdd, 0x0c, 0xd5, 0xe2, 0xc3, 0xe2,
  0xd9, 0xdd, 0x0e, 0x1e, 0xb4, 0xfd, 0x36, 0x64, 0xf9, 0x06, 0xf7, 0x3a,
  0xe5, 0x05, 0x13, 0x0d, 0xf5, 0xfb, 0xe5, 0xfe, 0xf3, 0x22, 0x1c, 0x1c,
  0xb5, 0xb5, 0x0b, 0xdd, 0xc5, 0x0e, 0xca, 0xeb, 0xae, 0xef, 0xd7, 0x01,
  0x1e, 0x01, 0x25, 0xde, 0x4c, 0xe7, 0x28, 0x4c, 0xec, 0xfd, 0xd0, 0xf0,
  0x0a, 0x2a, 0xbd, 0x17, 0xde, 0xf5, 0x17, 0xdc, 0x15, 0x08, 0xed, 0x53,
  0xdc, 0x07, 0xe6, 0x3b, 0x04, 0x1f, 0xbf, 0xc6, 0xa9, 0x2f, 0x9a, 0x04,
  0x6f, 0x44, 0xd7, 0x15, 0x0b, 0xd2, 0xf2, 0x9d, 0x3d, 0xd4, 0x3f, 0xbf,
  0xf2, 0x2c, 0x11, 0xdd, 0xc1, 0x48, 0x2a, 0xbb, 0xe6, 0xf8, 0x00, 0x56,
  0x26, 0xd9, 0x3f, 0x3b, 0xea, 0x17, 0x0c, 0x1f, 0x4b, 0xff, 0xdf, 0xe6,
  0x4f, 0x2c, 0x33, 0x33, 0xec, 0x39, 0xf9, 0x13, 0x51, 0x39, 0xce, 0xce,
  0xd8, 0xf0, 0x5c, 0x1d, 0x28, 0xe1, 0xdd, 0x39, 0x16, 0xf8, 0xc3, 0xca,
  0x06, 0x2e, 0xa6, 0xf1, 0xf8, 0xf4, 0xba, 0x3a, 0xc4, 0x49, 0xb9, 0xe1,
  0x3b, 0xc7, 0x15, 0xb4, 0xb6, 0x10, 0x27, 0x1c, 0x33, 0xdb, 0xf9, 0x40,
  0x3e, 0xff, 0xe4, 0xf5, 0xbc, 0xfa, 0x22, 0x09, 0xf7, 0xb6, 0xbe, 0xc2,
  0x1e, 0x1b, 0x10, 0x40, 0xc0, 0x14, 0x2a, 0x09, 0xd7, 0xe6, 0xd7, 0x22,
  0xf7, 0x2f, 0xa5, 0x44, 0x3d, 0x39, 0x3a, 0xf8, 0xdc, 0x19, 0xfe, 0x21,
  0xe4, 0x26, 0xe5, 0x2a, 0xe8, 0xaf, 0xbd, 0x1e, 0xfe, 0x06, 0xe1, 0xbf,
  0xd8, 0x2e, 0x25, 0x0a, 0xf1, 0x32, 0xb7, 0x07, 0xc2, 0x12, 0xf6, 0x29,
  0x13, 0xe0, 0xf5, 0x45, 0x11, 0xe2, 0xd3, 0x36, 0x32, 0x16, 0x45, 0xdd,
  0x10, 0xb1, 0xdc, 0x0d, 0x1d, 0x10, 0xcb, 0x0a, 0x0d, 0xf9, 0xfe, 0xfd,
  0xc9, 0x16, 0x0c, 0xb0, 0x14, 0xfe, 0xdd, 0xcf, 0x3b, 0xe5, 0xfc, 0xca,
  0x25, 0x24, 0x58, 0x3e, 0xe1, 0xdb, 0x10, 0xf6, 0x54, 0x19, 0x03, 0xcb,
  0xeb, 0xe0, 0x23, 0xfd, 0x1d, 0xfa, 0x05, 0xd0, 0x55, 0x08, 0x07, 0x14,
  0xd8, 0xf2, 0x29, 0xd6, 0xe3, 0xc8, 0x40, 0xaa, 0xde, 0x2b, 0x25, 0xbd,
  0xd9, 0xef, 0x00, 0xe9, 0xde, 0x3b, 0xf3, 0xac, 0x43, 0xe9, 0x2f, 0xce,
  0xdf, 0x2d, 0x0f, 0xfb, 0x24, 0x1e, 0xf9, 0x36, 0x1d, 0x0c, 0x05, 0xfe,
  0xdb, 0x03, 0x0c, 0x3e, 0x18, 0xb1, 0xb1, 0xf5, 0x4e, 0xfc, 0xf2, 0xfa,
  0xaa, 0xc7, 0x17, 0x04, 0xe4, 0x1f, 0xae, 0x07, 0x1f, 0x18, 0xa6, 0x53,
  0xc8, 0xf2, 0xf1, 0xf5, 0xec, 0xfb, 0x00, 0x39, 0x4b, 0x04, 0x9c, 0xa7,
  0x3d, 0xf0, 0x9d, 0xe9, 0xf0, 0xcf, 0xbe, 0x1c, 0xfa, 0xcc, 0xd3, 0x03,
  0x5d, 0xe0, 0xc2, 0x05, 0xfc, 0x0a, 0xba, 0x61, 0x63, 0x3b, 0xcc, 0x21,
  0x0d, 0xc8, 0xd7, 0xf1, 0x11, 0xc9, 0xf2, 0x19, 0x14, 0xf7, 0x24, 0xf1,
  0xd3, 0x00, 0x09, 0xd0, 0x81, 0xe6, 0x56, 0xf6, 0xf1, 0xf4, 0xd8, 0xb5,
  0x13, 0x15, 0x0d, 0xbc, 0xbc, 0xbe, 0xcd, 0x66, 0x2d, 0xf8, 0xb3, 0x21,
  0x97, 0x16, 0x11, 0x3f, 0x17, 0x19, 0x36, 0xca, 0xdf, 0x5f, 0xb0, 0xd6,
  0x5a, 0x15, 0xd7, 0x03, 0xec, 0xe2, 0xff, 0xd2, 0x00, 0xff, 0xa5, 0xd4,
  0x4b, 0x36, 0x0b, 0x00, 0xf2, 0xc2, 0xf2, 0xfe, 0x19, 0x4a, 0xb0, 0x37,
  0xdc, 0x12, 0x11, 0xc4, 0xe6, 0xd3, 0xe4, 0x14, 0x3b, 0xaa, 0xf0, 0x4d,
  0x64, 0xe1, 0x0c, 0x09, 0xfe, 0x52, 0xd3, 0x12, 0xce, 0xf6, 0x14, 0xf0,
  0x10, 0xca, 0x41, 0xd7, 0x4d, 0xc0, 0x20, 0xe3, 0xdd, 0xcd, 0xde, 0x33,
  0x0a, 0xe6, 0xd9, 0xc6, 0x06, 0x34, 0xd2, 0x3a, 0xfc, 0xab, 0xf9, 0x16,
  0x0f, 0xc7, 0x42, 0x3c, 0x2a, 0x15, 0x05, 0xc1, 0xd1, 0xca, 0x3f, 0xe5,
  0x44, 0x40, 0xda, 0x29, 0x27, 0xda, 0xce, 0xff, 0xd4, 0x33, 0x5d, 0xec,
  0x36, 0x2b, 0x33, 0x21, 0xf7, 0xd9, 0xe9, 0xe1, 0xe3, 0xd6, 0x08, 0xcb,
  0xcd, 0x27, 0x01, 0xf9, 0xd8, 0xd9, 0xa8, 0xef, 0xe5, 0xfd, 0xd3, 0xf7,
  0xeb, 0xdb, 0x1f, 0xf3, 0xe6, 0x35, 0x0b, 0xf9, 0xe8, 0xee, 0x51, 0x50,
  0xb6, 0xd2, 0x12, 0xe0, 0xea, 0xdf, 0xc5, 0xb5, 0xe9, 0x4f, 0x39, 0xe0,
  0xb3, 0x4d, 0xbd, 0x2b, 0xca, 0x2b, 0xf2, 0xca, 0xbf, 0x2d, 0x3f, 0x6c,
  0xda, 0x08, 0xff, 0x09, 0xe7, 0xd0, 0x40, 0x1c, 0x58, 0xcb, 0x3e, 0x36,
  0x19, 0x25, 0xdd, 0x0f, 0x0c, 0x27, 0x35, 0xfe, 0x04, 0xda, 0x17, 0xf7,
  0x12, 0x2c, 0x15, 0xff, 0x0e, 0x26, 0x35, 0xea, 0xdb, 0xe3, 0xc8, 0x13,
  0xfe, 0xa2, 0xe3, 0xc2, 0xf8, 0xc3, 0x0a, 0xd5, 0x09, 0xe0, 0x11, 0xbf,
  0xfc, 0x32, 0x1d, 0x13, 0x18, 0xde, 0xb8, 0xd7, 0x50, 0xed, 0xe4, 0xbb,
  0x20, 0xe2, 0xe7, 0xc7, 0x0e, 0x3b, 0x19, 0x02, 0xe4, 0xd7, 0xc5, 0xfa,
  0x11, 0xa2, 0x1b, 0x54, 0x29, 0x24, 0xb4, 0x03, 0x29, 0x3e, 0x35, 0xea,
  0xad, 0xe3, 0x04, 0x03, 0xfe, 0x0d, 0x4b, 0xda, 0x4b, 0xc9, 0x17, 0xd6,
  0x05, 0xe9, 0xf4, 0xd9, 0xe1, 0xd5, 0x4e, 0xed, 0x47, 0x59, 0xbe, 0xe4,
  0x34, 0x3e, 0x03, 0x11, 0x2b, 0xb1, 0x49, 0xc7, 0xf2, 0xe5, 0xfa, 0xd6,
  0x1e, 0xf5, 0xc7, 0x0a, 0xf4, 0x22, 0x41, 0xd2, 0x18, 0x12, 0xfc, 0x26,
  0x5d, 0x1e, 0x0d, 0x2a, 0x25, 0x44, 0xdb, 0x07, 0x0f, 0x1f, 0x35, 0x1d,
  0xea, 0x18, 0xb1, 0xa4, 0x40, 0x5f, 0x18, 0xd9, 0xda, 0xe6, 0xd1, 0xe6,
  0x32, 0x15, 0x00, 0x06, 0x12, 0xbb, 0x08, 0x3d, 0x3a, 0x2a, 0x1b, 0xe9,
  0xfe, 0xd0, 0xcf, 0xd7, 0xff, 0xe0, 0x40, 0x06, 0x52, 0xdd, 0xb9, 0xbb,
  0x37, 0x05, 0x11, 0xa8, 0xce, 0xed, 0x22, 0x1c, 0x2b, 0xdf, 0x1d, 0x07,
  0x3a, 0x22, 0xeb, 0x45, 0x39, 0xbf, 0x3e, 0x0a, 0xf5, 0x19, 0x0c, 0xd3,
  0xd0, 0x2b, 0xf8, 0xf6, 0xf3, 0x2c, 0x23, 0xf2, 0xd7, 0x20, 0xab, 0xdd,
  0xc7, 0x01, 0xf0, 0xdf, 0x3d, 0x47, 0xca, 0xfe, 0xc7, 0x1a, 0x0e, 0xc0,
  0x2c, 0x4f, 0x06, 0xc3, 0xc8, 0x8c, 0x30, 0x1a, 0x09, 0xef, 0x34, 0xe5,
  0xcf, 0xf4, 0xf1, 0x16, 0x29, 0x27, 0x23, 0xec, 0x33, 0xd9, 0x11, 0x10,
  0x0b, 0xc4, 0xbc, 0x07, 0xf1, 0xd6, 0x34, 0xbc, 0xa3, 0x0e, 0xf4, 0x24,
  0x0d, 0x03, 0xb4, 0xd7, 0x0d, 0x05, 0x0c, 0x00, 0xd3, 0x22, 0x2d, 0x05,
  0x2a, 0xdb, 0x14, 0x50, 0xff, 0x55, 0xdb, 0x0d, 0x16, 0x0d, 0x43, 0xce,
  0x05, 0x39, 0x14, 0x2e, 0xf8, 0x16, 0x1b, 0xa3, 0x30, 0xfd, 0xd5, 0xdc,
  0xf3, 0x0f, 0x2d, 0x17, 0xfa, 0x49, 0x18, 0xfa, 0xe7, 0x5c, 0xd7, 0x05,
  0x22, 0x3a, 0xcd, 0x16, 0x3a, 0x4f, 0x65, 0xb5, 0xf1, 0x16, 0xe0, 0x0a,
  0x06, 0x3a, 0x0b, 0xea, 0x13, 0x99, 0x48, 0xef, 0x28, 0x14, 0x2a, 0xdd,
  0x34, 0x2b, 0xe4, 0x29, 0xfa, 0xeb, 0xec, 0x4f, 0xca, 0xc3, 0xd3, 0xf1,
  0xf4, 0x11, 0xc2, 0xf7, 0x09, 0x18, 0x50, 0xda, 0x1b, 0x28, 0xf6, 0xf0,
  0x65, 0xf1, 0x2d, 0x35, 0x32, 0x37, 0x0a, 0xfa, 0x1f, 0x0c, 0xf3, 0xd7,
  0x54, 0x03, 0x1c, 0xdc, 0xdc, 0x51, 0x11, 0x61, 0x09, 0xac, 0xfb, 0x36,
  0x10, 0x46, 0xa8, 0x16, 0xb1, 0xa4, 0x27, 0x2d, 0xff, 0xf2, 0x3c, 0x1b,
  0xd1, 0x27, 0x01, 0xc3, 0x2a, 0x96, 0xde, 0xf8, 0x50, 0xfd, 0xd4, 0xd7,
  0xe0, 0x59, 0xd7, 0xa5, 0x12, 0xb7, 0x12, 0xfc, 0x04, 0x0d, 0x0e, 0x35,
  0xff, 0xb7, 0x00, 0xf2, 0x0b, 0x19, 0x07, 0x05, 0x5b, 0xc7, 0x19, 0xca,
  0x39, 0xd1, 0x3c, 0x47, 0x31, 0x02, 0xf1, 0x1f, 0xe0, 0x16, 0x1c, 0x49,
  0x3d, 0xb0, 0xbd, 0x45, 0xf6, 0x2f, 0x10, 0xf1, 0x20, 0xa0, 0x39, 0x09,
  0x49, 0x23, 0x19, 0xe3, 0x1b, 0xd6, 0xe5, 0x33, 0x0f, 0xc1, 0x43, 0x10,
  0xff, 0x44, 0xd9, 0xf6, 0x98, 0xfb, 0x09, 0xf7, 0xda, 0xd9, 0x17, 0xfd,
  0x09, 0xec, 0xce, 0xa7, 0x1a, 0x27, 0xf2, 0x56, 0xae, 0x22, 0x09, 0xde,
  0xe7, 0x27, 0x29, 0xe9, 0xfa, 0xa3, 0x14, 0xdb, 0x36, 0x1f, 0xe6, 0xd6,
  0xfc, 0xbc, 0xd8, 0xaa, 0xaf, 0x20, 0x0b, 0x12, 0x33, 0x16, 0xfb, 0x24,
  0xee, 0xd3, 0x1e, 0x0b, 0x3a, 0xb2, 0xe5, 0x37, 0xf1, 0xc1, 0x54, 0xee,
  0x17, 0xbe, 0x3d, 0xd9, 0x44, 0xe6, 0x16, 0x3c, 0x15, 0x2b, 0xe3, 0xa8,
  0xdf, 0xea, 0x32, 0x47, 0xf6, 0x0e, 0xef, 0x32, 0xc3, 0xdc, 0x06, 0xf4,
  0x9f, 0xa6, 0x12, 0x42, 0xc2, 0x42, 0xe7, 0xb1, 0xc9, 0xef, 0xdc, 0x33,
  0xe3, 0x5c, 0x0a, 0x51, 0xc2, 0x2d, 0x3b, 0x3a, 0x54, 0xfe, 0x42, 0xd0,
  0x0f, 0xf0, 0x1c, 0x12, 0xc9, 0x13, 0xe9, 0xd8, 0x0d, 0xf7, 0xb3, 0x19,
  0xa9, 0xcc, 0xf9, 0xe9, 0x21, 0x0c, 0x4e, 0x57, 0x64, 0x19, 0x06, 0xbd,
  0xdc, 0x18, 0x19, 0x18, 0xfc, 0x38, 0xd9, 0xb1, 0xf4, 0x09, 0x1a, 0xe2,
  0xf9, 0xfe, 0x0d, 0x52, 0xc7, 0xf0, 0xd8, 0x57, 0xf3, 0x13, 0xf4, 0xf9,
  0x12, 0x14, 0x0e, 0x1a, 0xdf, 0xf0, 0xac, 0x1b, 0xba, 0x5c, 0x0e, 0x07,
  0xe4, 0x2d, 0xeb, 0x2d, 0xf1, 0x1d, 0xdf, 0x0d, 0x01, 0xfe, 0xd8, 0xfe,
  0xfe, 0xb5, 0x0d, 0xcb, 0x98, 0xaa, 0x07, 0x24, 0xe7, 0x30, 0x26, 0xa8,
  0xe1, 0xae, 0x46, 0x3f, 0xf4, 0x4b, 0xbd, 0x29, 0x40, 0xfc, 0x1c, 0x23,
  0xe5, 0xf1, 0x99, 0xfe, 0xf9, 0x00, 0x3c, 0xe0, 0x13, 0xee, 0xdb, 0x14,
  0x40, 0x1c, 0xbd, 0x48, 0xe7, 0x04, 0xff, 0xa9, 0xc2, 0xda, 0xf7, 0x10,
  0xc0, 0xee, 0x08, 0x1b, 0xf1, 0xaa, 0xe9, 0xdb, 0x58, 0x3a, 0x12, 0x13,
  0x1f, 0x0c, 0x15, 0xe9, 0xe4, 0xf2, 0xce, 0xed, 0x4b, 0xdf, 0x04, 0xcd,
  0x45, 0xc1, 0x22, 0x32, 0x22, 0xef, 0xd1, 0xa0, 0x13, 0x2a, 0x12, 0x1a,
  0xf9, 0x28, 0x15, 0x09, 0x01, 0xf2, 0x02, 0xd2, 0xa5, 0x11, 0xfe, 0x16,
  0xfd, 0xe0, 0x33, 0x65, 0x1e, 0xf7, 0x1c, 0x39, 0xc7, 0x10, 0x0e, 0xa7,
  0xec, 0x07, 0x57, 0x3b, 0x21, 0x1e, 0xc9, 0x06, 0x10, 0x16, 0xbc, 0xf5,
  0x27, 0xcb, 0x25, 0xf8, 0xcb, 0xd4, 0x2e, 0x39, 0x10, 0xff, 0xe5, 0x22,
  0xc0, 0x07, 0x0d, 0xbb, 0xf3, 0xc9, 0xdc, 0xae, 0xe3, 0xd2, 0x20, 0xca,
  0x18, 0xf3, 0xed, 0xf1, 0xee, 0xbe, 0xc5, 0xeb, 0xf6, 0x13, 0xd1, 0xe2,
  0xee, 0xfd, 0xf4, 0xc5, 0x0a, 0xe4, 0xe3, 0xb4, 0xda, 0x1a, 0xd7, 0xb0,
  0x23, 0x08, 0xd3, 0x10, 0x1c, 0x30, 0xfe, 0xf0, 0xeb, 0x2a, 0x1c, 0xc7,
  0x1c, 0xf6, 0x32, 0xa8, 0xfe, 0x11, 0xdf, 0xc4, 0x34, 0xca, 0xb4, 0x58,
  0x03, 0xbf, 0xbe, 0xf4, 0x1b, 0x27, 0x0a, 0xda, 0xe6, 0xf7, 0x28, 0xe4,
  0x4f, 0xe8, 0xeb, 0xfe, 0xd5, 0xb7, 0x0c, 0x2a, 0xa3, 0xe8, 0xc7, 0x0c,
  0xe0, 0x43, 0x37, 0x23, 0xf4, 0x55, 0xca, 0xe9, 0x19, 0x21, 0xe2, 0xfe,
  0xeb, 0x10, 0xef, 0xe0, 0xe6, 0x0f, 0x15, 0xb5, 0xf7, 0xb5, 0xf1, 0x0b,
  0x05, 0xf6, 0x3f, 0xf6, 0xd6, 0x31, 0xb2, 0xe1, 0xdc, 0x05, 0x0f, 0x04,
  0xf6, 0x43, 0xee, 0xad, 0xd6, 0x0b, 0x1e, 0x4b, 0xd4, 0xfc, 0x98, 0x05,
  0xc5, 0x1c, 0x29, 0x1b, 0xd6, 0xe4, 0x03, 0xeb, 0xe4, 0x00, 0x27, 0xc2,
  0xfc, 0x26, 0x18, 0xd6, 0x12, 0x30, 0x36, 0x06, 0x40, 0xe0, 0xe3, 0xdc,
  0xf3, 0xe3, 0x1c, 0x18, 0xd5, 0xf7, 0xc5, 0x50, 0x1e, 0x17, 0xa8, 0x36,
  0x1b, 0xf2, 0xf1, 0x39, 0x46, 0xf1, 0xca, 0x2f, 0xc7, 0xf9, 0x16, 0x40,
  0x5b, 0xa9, 0x08, 0xdd, 0x03, 0x1b, 0xcf, 0x26, 0xd1, 0x01, 0xba, 0x72,
  0xd0, 0x47, 0xe0, 0x11, 0x4d, 0x58, 0x1d, 0x0e, 0x23, 0x14, 0x30, 0x60,
  0x23, 0x15, 0x36, 0xf8, 0x06, 0x2f, 0x57, 0xc0, 0x34, 0x02, 0x28, 0x15,
  0x31, 0xee, 0x10, 0xdb, 0x04, 0x08, 0x14, 0xff, 0x56, 0x3e, 0x17, 0xd5,
  0xfa, 0xb8, 0xe8, 0x27, 0xec, 0x3f, 0xd6, 0x2d, 0xed, 0x4c, 0xcc, 0x26,
  0x0d, 0x0b, 0x99, 0x27, 0xd0, 0xfb, 0x02, 0xf0, 0x04, 0x0e, 0x09, 0x2d,
  0x0c, 0xc0, 0xd8, 0x3b, 0xce, 0x04, 0xcd, 0x2a, 0xbc, 0x29, 0x00, 0x14,
  0xc2, 0x5a, 0x02, 0xf7, 0xe5, 0xcf, 0x01, 0xed, 0x01, 0xe5, 0xe7, 0x45,
  0xa5, 0xe0, 0x2d, 0x9c, 0xd7, 0x21, 0xcc, 0xd9, 0x48, 0x97, 0x1a, 0x20,
  0x12, 0xbe, 0xcf, 0x1d, 0x18, 0x2a, 0x28, 0xe7, 0x4e, 0x2c, 0xdf, 0x07,
  0xe0, 0x16, 0x10, 0xb0, 0xbd, 0x17, 0xd9, 0x2d, 0x3f, 0x01, 0xd1, 0xc5,
  0x0f, 0x1d, 0x03, 0x03, 0xef, 0xf5, 0x19, 0x1e, 0xde, 0xca, 0x24, 0x23,
  0x27, 0xd2, 0xb3, 0x09, 0xf3, 0x0b, 0x1b, 0x33, 0x47, 0xdf, 0x5f, 0xcf,
  0xde, 0x06, 0x0b, 0x1e, 0xff, 0xde, 0xe1, 0xd6, 0x62, 0x5c, 0xf6, 0x31,
  0x4c, 0xd4, 0x0c, 0x02, 0x0c, 0x0f, 0x05, 0x30, 0xc6, 0xfe, 0x42, 0xf4,
  0xbd, 0x32, 0x5d, 0xcf, 0x4e, 0x41, 0x3c, 0x10, 0x3d, 0xea, 0xb4, 0xfc,
  0x15, 0x09, 0x4a, 0x32, 0x21, 0x2c, 0xe9, 0xb3, 0x39, 0xf7, 0x21, 0x26,
  0x10, 0x34, 0xb6, 0xd0, 0x34, 0xe0, 0xb3, 0xf8, 0x50, 0xe8, 0xa7, 0x9e,
  0x3d, 0xf1, 0x15, 0x18, 0x04, 0xe9, 0x11, 0xf6, 0xfe, 0xb8, 0x22, 0x2b,
  0x0b, 0xf1, 0xe3, 0xca, 0xa8, 0xf4, 0x1f, 0xde, 0x2f, 0x12, 0xe3, 0xce,
  0x00, 0xe8, 0xf8, 0xf3, 0x2c, 0x19, 0xf9, 0xfe, 0x13, 0x00, 0x18, 0x58,
  0x36, 0xcc, 0xe7, 0xdf, 0xfc, 0x0b, 0xc3, 0xd6, 0xd3, 0xe4, 0x49, 0x09,
  0xef, 0x43, 0x2d, 0xde, 0x19, 0x36, 0xb1, 0x36, 0xda, 0x34, 0x1a, 0x07,
  0xa1, 0x59, 0xfd, 0x0f, 0xfd, 0x3b, 0x42, 0x19, 0x13, 0xfe, 0xe4, 0x0e,
  0x07, 0xd8, 0xa6, 0x20, 0xfd, 0xc3, 0x13, 0x2f, 0x18, 0xd5, 0xcd, 0x0f,
  0x22, 0x27, 0xc9, 0xdd, 0xf5, 0x65, 0x42, 0x14, 0xe9, 0x52, 0x20, 0x1a,
  0xe9, 0x1b, 0xef, 0xf0, 0x58, 0xfe, 0x08, 0x31, 0x2a, 0xe0, 0xbd, 0xff,
  0x37, 0xd1, 0x32, 0xf2, 0x13, 0xca, 0xd0, 0xe7, 0xcd, 0x0f, 0x52, 0xe1,
  0xc9, 0x1b, 0xb1, 0x30, 0x3a, 0xf0, 0x25, 0x40, 0xb8, 0x2c, 0x5f, 0xef,
  0x24, 0x1e, 0x27, 0x02, 0x32, 0x13, 0x08, 0xa1, 0x09, 0x17, 0x2e, 0xae,
  0x4c, 0x37, 0x3c, 0xf1, 0x03, 0xbc, 0x40, 0x16, 0xc6, 0xe3, 0xf5, 0x9d,
  0x00, 0xeb, 0xfc, 0x2d, 0x14, 0x07, 0xf4, 0x22, 0x51, 0x0a, 0x26, 0x33,
  0x14, 0xe7, 0xd8, 0x55, 0xbb, 0x45, 0xdd, 0x26, 0x05, 0xdf, 0x12, 0x26,
  0x18, 0xcd, 0xa7, 0xe5, 0xd8, 0xdb, 0xac, 0xf5, 0x46, 0xf1, 0x1f, 0x54,
  0xee, 0x3d, 0xcd, 0xca, 0xb5, 0xfc, 0x3a, 0xe2, 0xac, 0xf4, 0xa7, 0x09,
  0xf0, 0x06, 0x19, 0x05, 0x0d, 0x3b, 0xca, 0x52, 0xfd, 0x3d, 0xc9, 0x1b,
  0x15, 0x41, 0xbd, 0xe8, 0x11, 0xde, 0x0f, 0xf4, 0xf8, 0x22, 0x4b, 0x26,
  0xf3, 0xf8, 0xe3, 0xf8, 0xdf, 0x05, 0x1d, 0x0e, 0xbc, 0x4d, 0xdd, 0x5b,
  0x14, 0xd9, 0xf8, 0x2a, 0xde, 0xd3, 0x0b, 0x3e, 0xea, 0x5f, 0xfa, 0x12,
  0xf8, 0xf4, 0x03, 0xad, 0xd6, 0xef, 0x0a, 0x0b, 0xb9, 0xc1, 0xee, 0x01,
  0x01, 0xd8, 0xe1, 0xdb, 0x39, 0x16, 0xdf, 0xeb, 0x01, 0x02, 0xbe, 0x2f,
  0xfd, 0xc5, 0x24, 0x02, 0xf1, 0xda, 0x5a, 0xba, 0xda, 0x30, 0xea, 0x1b,
  0x12, 0x3a, 0xfe, 0xff, 0x02, 0x16, 0x24, 0x25, 0x61, 0xea, 0x9f, 0xbe,
  0xe0, 0x15, 0xae, 0x45, 0x07, 0x0b, 0x4c, 0x41, 0xe4, 0x07, 0xc3, 0x28,
  0x16, 0xe2, 0xde, 0xda, 0x11, 0x34, 0x1f, 0x0b, 0xff, 0xb5, 0xc6, 0x25,
  0xd5, 0xd5, 0x0b, 0x26, 0xdb, 0xd9, 0xfc, 0xf6, 0x4a, 0x57, 0xd2, 0xf7,
  0xcb, 0x13, 0xe5, 0x15, 0xc5, 0xe7, 0xc8, 0x64, 0x2a, 0xb0, 0x90, 0x56,
  0x52, 0x0b, 0x29, 0xed, 0xe1, 0xd0, 0x58, 0xd1, 0xfb, 0x11, 0xbd, 0x05,
  0xf6, 0x05, 0xf4, 0x20, 0x32, 0xca, 0x08, 0xc0, 0xfa, 0xd3, 0x18, 0x2f,
  0xfc, 0x1b, 0x06, 0x0b, 0x9e, 0xa1, 0xd0, 0x40, 0xc9, 0x55, 0x12, 0xf3,
  0xf8, 0x16, 0x26, 0x33, 0xfc, 0xe9, 0x12, 0xb9, 0xd4, 0x01, 0xd8, 0xcd,
  0x33, 0x05, 0xe5, 0xa8, 0xa7, 0x59, 0x1e, 0x3a, 0xd6, 0x3f, 0x14, 0x2d,
  0xe2, 0x14, 0xbd, 0x27, 0x16, 0x41, 0xc3, 0xf8, 0xd5, 0x05, 0xf5, 0xfb,
  0x1d, 0x11, 0xac, 0xfa, 0x04, 0x10, 0x1c, 0x06, 0xe9, 0x26, 0x39, 0x01,
  0x0d, 0xb8, 0xa1, 0x0e, 0xd1, 0x2a, 0xf3, 0xd4, 0xf3, 0x1d, 0x08, 0x14,
  0x0e, 0xd5, 0xf3, 0x03, 0xfb, 0x07, 0x33, 0xe0, 0x46, 0x18, 0xf0, 0x5a,
  0xfe, 0x01, 0xf0, 0xec, 0x9b, 0x28, 0x09, 0xf7, 0xe6, 0x29, 0xde, 0xfb,
  0x1b, 0x24, 0x46, 0x09, 0xff, 0x1f, 0xf9, 0x31, 0xf9, 0x19, 0xc7, 0x2d,
  0xd2, 0xfa, 0xf3, 0xa8, 0x3a, 0x0c, 0x0b, 0xc7, 0x15, 0xb2, 0xab, 0xda,
  0x12, 0x34, 0xbf, 0x13, 0xfd, 0xff, 0xee, 0xdb, 0x34, 0x46, 0xb2, 0x6b,
  0x58, 0x10, 0xe6, 0xee, 0x1f, 0xf6, 0xb0, 0x9d, 0xea, 0xd8, 0x21, 0x26,
  0x02, 0x34, 0x0d, 0x47, 0x19, 0x2d, 0x05, 0xef, 0x2f, 0x29, 0x14, 0xcc,
  0x2e, 0x03, 0x28, 0xfb, 0xf1, 0x54, 0x04, 0xcf, 0x11, 0xda, 0x18, 0x06,
  0xcc, 0x11, 0xf0, 0x0f, 0xe6, 0x23, 0xe4, 0xac, 0x40, 0x11, 0x11, 0xfe,
  0xf4, 0xba, 0xea, 0xf5, 0xd7, 0xe8, 0x1d, 0xfc, 0x17, 0x39, 0xcc, 0x1c,
  0xa6, 0x11, 0xc9, 0x0d, 0xb1, 0x64, 0x43, 0xd8, 0xf2, 0xe1, 0x00, 0x43,
  0xd0, 0xb6, 0xbe, 0xeb, 0x1e, 0xa3, 0xf6, 0xd0, 0xe7, 0x20, 0xa3, 0xda,
  0xf7, 0xd2, 0xe0, 0xa0, 0x2e, 0x21, 0xb8, 0xcb, 0x1b, 0x10, 0xfe, 0x68,
  0xdd, 0x58, 0xf4, 0x1e, 0x8e, 0xfe, 0x06, 0xf1, 0x46, 0x3e, 0xed, 0x02,
  0xf9, 0x0f, 0xfb, 0xff, 0xd0, 0xfa, 0xff, 0xff, 0xd4, 0xfa, 0xff, 0xff,
  0x0a, 0xfb, 0xff, 0xff, 0x04, 0x00, 0x00, 0x00, 0xee, 0x02, 0x00, 0x00,
  0x23, 0x24, 0xf6, 0x6b, 0xf8, 0xc2, 0x5a, 0xe2, 0x2c, 0x0b, 0xd7, 0xf0,
  0x28, 0x42, 0x32, 0xf1, 0xaa, 0x14, 0x26, 0x56, 0xda, 0x2e, 0x37, 0xc3,
  0x16, 0x1a, 0x0b, 0xd7, 0xff, 0x51, 0x20, 0xf1, 0x2f, 0xa8, 0x0d, 0xbb,
  0x04, 0x04, 0xb5, 0x55, 0x1c, 0xed, 0x1c, 0x4c, 0xe9, 0xb7, 0xda, 0x25,
  0x5c, 0x3c, 0xce, 0x47, 0xce, 0x06, 0xc8, 0xc2, 0x31, 0x37, 0x3a, 0xef,
  0xc0, 0xc4, 0xa9, 0xbe, 0x3a, 0x24, 0x03, 0xab, 0xa3, 0xb0, 0x3c, 0xe4,
  0xe2, 0xdf, 0x4a, 0x2c, 0x5e, 0x0c, 0x44, 0xed, 0xc3, 0x07, 0x17, 0x2a,
  0x0f, 0xf8, 0x24, 0x37, 0x1c, 0x2d, 0x24, 0xf4, 0xc9, 0xb4, 0xfd, 0xff,
  0x21, 0xd9, 0xd9, 0xf5, 0xee, 0x43, 0x41, 0xe7, 0x4f, 0xf0, 0xe3, 0xf8,
  0x07, 0x01, 0x03, 0x1b, 0xd4, 0xbc, 0xe8, 0x39, 0x43, 0x11, 0x24, 0xfb,
  0x30, 0xf3, 0xdb, 0xcd, 0xd4, 0xfa, 0xf4, 0x03, 0xfe, 0xab, 0x40, 0x31,
  0x42, 0xdf, 0x0e, 0x4d, 0x02, 0x18, 0xdb, 0xf9, 0x48, 0xd8, 0x69, 0xed,
  0xf4, 0x20, 0x29, 0xa5, 0xd5, 0x45, 0x06, 0x90, 0xfa, 0xd9, 0xf9, 0x60,
  0xf4, 0x2c, 0x61, 0xfc, 0xe3, 0x63, 0x02, 0x2f, 0xcf, 0x39, 0x9d, 0xe5,
  0x04, 0x24, 0xfa, 0xa6, 0x55, 0xe7, 0xf9, 0x25, 0xd8, 0xfe, 0x06, 0x04,
  0x07, 0x1f, 0x4a, 0x7d, 0xfb, 0x1e, 0xa2, 0x3b, 0xb3, 0x51, 0x0a, 0xd7,
  0x56, 0x1a, 0xc1, 0x0d, 0x4d, 0x6b, 0x45, 0x20, 0xeb, 0x7f, 0x43, 0xfd,
  0x03, 0xfb, 0xbf, 0x0b, 0xbf, 0xf8, 0x18, 0xcb, 0xa0, 0xd4, 0xe2, 0xdf,
  0xe8, 0x0f, 0xd7, 0xfa, 0xea, 0x3c, 0xe9, 0x9f, 0x2e, 0xcb, 0xa3, 0x38,
  0x31, 0x04, 0xc7, 0x48, 0xe7, 0xd8, 0x0c, 0x45, 0xd7, 0xe6, 0x3f, 0x33,
  0xd3, 0x2b, 0x2f, 0x67, 0xb8, 0x31, 0x34, 0x4a, 0xfb, 0x39, 0x11, 0x97,
  0x1b, 0x61, 0x30, 0x28, 0x1d, 0x2a, 0x32, 0x2d, 0xe7, 0x2c, 0x26, 0xed,
  0xea, 0x1f, 0xe0, 0xf7, 0xdc, 0x07, 0x04, 0x15, 0x1d, 0x45, 0x25, 0x1e,
  0xf5, 0x32, 0xca, 0x35, 0xb4, 0xf0, 0x15, 0x15, 0xe6, 0x0a, 0xb0, 0x04,
  0xfb, 0xd8, 0x5a, 0xb9, 0xa8, 0x54, 0x20, 0x43, 0x38, 0x08, 0xf2, 0x53,
  0xc6, 0xfd, 0xe5, 0xdd, 0xe2, 0x20, 0x53, 0xdc, 0x2a, 0xc2, 0x18, 0x04,
  0xd3, 0x68, 0x08, 0x09, 0x28, 0xd8, 0x1e, 0x05, 0x9a, 0xf5, 0xbf, 0xed,
  0x4b, 0xb9, 0xd4, 0xe7, 0xc1, 0xd8, 0x50, 0xf3, 0x3c, 0x11, 0x20, 0xd9,
  0x2c, 0xda, 0xea, 0xe6, 0xea, 0xf2, 0xf1, 0xbb, 0xf6, 0x26, 0x0c, 0xbc,
  0xc7, 0xb3, 0x22, 0xff, 0xe9, 0x4c, 0x15, 0xd8, 0xd3, 0x38, 0x4a, 0xfc,
  0xf2, 0x28, 0xf4, 0xec, 0xf9, 0x25, 0xca, 0x2b, 0x17, 0x47, 0xff, 0x1a,
  0x3b, 0x51, 0x3b, 0xc5, 0xff, 0x06, 0xe1, 0x1d, 0x26, 0x3d, 0x91, 0xbb,
  0x23, 0x20, 0xe7, 0x26, 0xfb, 0x1c, 0xd3, 0xf1, 0x36, 0xd0, 0xd0, 0x07,
  0x0b, 0x38, 0x0b, 0x24, 0x40, 0x69, 0x25, 0x12, 0xd8, 0x61, 0xe4, 0xd6,
  0x1c, 0x41, 0xf4, 0xb4, 0x02, 0x0f, 0x01, 0xff, 0xc6, 0x9b, 0x17, 0xd9,
  0x43, 0xd5, 0xf1, 0xa3, 0xc7, 0x9f, 0xbe, 0xd9, 0x06, 0x07, 0x9c, 0x28,
  0xd2, 0xeb, 0x0f, 0x38, 0x0f, 0xb7, 0x1d, 0xdf, 0x0f, 0x55, 0xbb, 0x6a,
  0x3b, 0x37, 0x10, 0xc6, 0x42, 0x25, 0xa8, 0xfd, 0xf4, 0xff, 0x33, 0x36,
  0xfe, 0x46, 0x4b, 0x1e, 0xb7, 0xd8, 0x35, 0x07, 0xf2, 0x01, 0xd9, 0x50,
  0x12, 0x06, 0xe7, 0xc7, 0x58, 0x33, 0xd7, 0x3b, 0xe9, 0xf3, 0xd5, 0x35,
  0x3f, 0x15, 0x2b, 0xf1, 0xf6, 0x0f, 0x12, 0xc6, 0x02, 0xca, 0x28, 0xc0,
  0x22, 0xb6, 0x11, 0xef, 0x04, 0xf0, 0xe5, 0x55, 0x3d, 0xe8, 0x25, 0xf2,
  0x38, 0x0d, 0xc4, 0x98, 0x9d, 0x2d, 0xe2, 0xdf, 0xf2, 0x93, 0xe9, 0xd2,
  0xd3, 0x16, 0x32, 0x04, 0xe4, 0xf2, 0x0e, 0xe8, 0x08, 0xd4, 0xe7, 0x4e,
  0x09, 0xea, 0xe9, 0xfe, 0xd9, 0xcf, 0xf6, 0xae, 0x30, 0x09, 0xd5, 0xf6,
  0x42, 0xbf, 0x1b, 0x94, 0x43, 0xff, 0x06, 0xce, 0x22, 0x0e, 0x2d, 0x5d,
  0xf5, 0x02, 0xf0, 0x4b, 0x9c, 0x40, 0xbc, 0x4e, 0xc2, 0xca, 0x11, 0xde,
  0xe9, 0xb6, 0x38, 0x37, 0x23, 0xb8, 0xf1, 0x13, 0xf2, 0x09, 0x33, 0x1f,
  0x5b, 0xff, 0xc5, 0x07, 0x35, 0x9e, 0xdb, 0xed, 0x69, 0x47, 0xdb, 0x13,
  0xef, 0x62, 0x18, 0xb3, 0xd2, 0x3f, 0xea, 0xee, 0x18, 0xde, 0x3c, 0x3a,
  0xea, 0xad, 0x40, 0x1a, 0x27, 0x24, 0x0c, 0xee, 0x21, 0x3f, 0x48, 0xa8,
  0x53, 0xd9, 0x01, 0x02, 0xa1, 0xed, 0x0e, 0xce, 0x39, 0xe8, 0x5b, 0xaf,
  0xfc, 0x52, 0x0d, 0xd5, 0xd7, 0xff, 0xd9, 0xb9, 0x19, 0x10, 0x0e, 0xb2,
  0x34, 0x63, 0x10, 0xaa, 0xb6, 0x18, 0x0e, 0xf6, 0x05, 0xef, 0x2a, 0x20,
  0xfd, 0xdb, 0x44, 0x77, 0x1b, 0x26, 0xff, 0x49, 0x0c, 0xe0, 0xdb, 0x0c,
  0xe6, 0x40, 0xf3, 0x00, 0x4d, 0xe6, 0xe5, 0xca, 0xb3, 0xf2, 0xd0, 0x26,
  0xf7, 0xef, 0x39, 0xcb, 0xee, 0xea, 0xd1, 0xc4, 0xf2, 0x03, 0x1a, 0xf5,
  0xa9, 0x35, 0xf4, 0x2a, 0x46, 0xe2, 0xdc, 0x17, 0x39, 0xc8, 0x22, 0x75,
  0xe1, 0x09, 0xda, 0xe6, 0xa7, 0x07, 0x14, 0xcf, 0x1f, 0x3b, 0x1e, 0x9d,
  0x08, 0xa6, 0xc8, 0x51, 0x24, 0xd9, 0xd2, 0x6b, 0xf3, 0x0b, 0xd5, 0x03,
  0x05, 0x52, 0xcf, 0xf2, 0x14, 0xfd, 0x0c, 0xea, 0xac, 0xdb, 0xe8, 0xb7,
  0x3d, 0xdb, 0xe3, 0x47, 0x4d, 0xe9, 0xfc, 0x2f, 0xfb, 0xcc, 0x1a, 0xc0,
  0xdc, 0x40, 0x1c, 0xf6, 0x4f, 0x32, 0x00, 0x00, 0xd4, 0xfd, 0xff, 0xff,
  0x0a, 0xfe, 0xff, 0xff, 0x04, 0x00, 0x00, 0x00, 0xc8, 0x00, 0x00, 0x00,
  0x44, 0x05, 0x00, 0x00, 0xfe, 0x0b, 0x00, 0x00, 0xcd, 0x05, 0x00, 0x00,
  0xe8, 0xfc, 0xff, 0xff, 0x83, 0xfa, 0xff, 0xff, 0xd8, 0x0c, 0x00, 0x00,
  0x25, 0xfd, 0xff, 0xff, 0x48, 0xfc, 0xff, 0xff, 0x26, 0x05, 0x00, 0x00,
  0x20, 0xff, 0xff, 0xff, 0x07, 0xfd, 0xff, 0xff, 0xd7, 0x03, 0x00, 0x00,
  0x45, 0xfc, 0xff, 0xff, 0xbb, 0xfe, 0xff, 0xff, 0xae, 0x00, 0x00, 0x00,
  0xa0, 0x05, 0x00, 0x00, 0x69, 0xfe, 0xff, 0xff, 0x36, 0xfd, 0xff, 0xff,
  0xd2, 0xf9, 0xff, 0xff, 0x44, 0xfc, 0xff, 0xff, 0x33, 0xff, 0xff, 0xff,
  0x92, 0xfc, 0xff, 0xff, 0x63, 0x04, 0x00, 0x00, 0x16, 0x08, 0x00, 0x00,
  0xd5, 0xfc, 0xff, 0xff, 0x78, 0x04, 0x00, 0x00, 0x87, 0xfa, 0xff, 0xff,
  0x03, 0x00, 0x00, 0x00, 0x2e, 0x02, 0x00, 0x00, 0x85, 0xfd, 0xff, 0xff,
  0x3b, 0x08, 0x00, 0x00, 0x5b, 0x0f, 0x00, 0x00, 0x44, 0xf6, 0xff, 0xff,
  0x33, 0x05, 0x00, 0x00, 0x42, 0x02, 0x00, 0x00, 0x8d, 0x0d, 0x00, 0x00,
  0xe0, 0xfe, 0xff, 0xff, 0x31, 0xf9, 0xff, 0xff, 0x20, 0x07, 0x00, 0x00,
  0xfa, 0xff, 0xff, 0xff, 0xf0, 0x03, 0x00, 0x00, 0xbc, 0xf9, 0xff, 0xff,
  0x7b, 0xfe, 0xff, 0xff, 0xef, 0x0b, 0x00, 0x00, 0x90, 0x00, 0x00, 0x00,
  0x9c, 0x06, 0x00, 0x00, 0x37, 0x02, 0x00, 0x00, 0x9a, 0x03, 0x00, 0x00,
  0x69, 0x0b, 0x00, 0x00, 0xaa, 0x0f, 0x00, 0x00, 0xde, 0xfe, 0xff, 0xff,
  0x04, 0x00, 0x00, 0x00, 0x3c, 0x00, 0x00, 0x00, 0x82, 0xfd, 0xff, 0xff,
  0xed, 0xff, 0xff, 0xff, 0x6e, 0x02, 0x00, 0x00, 0x6f, 0x01, 0x00, 0x00,
  0xde, 0x06, 0x00, 0x00, 0x33, 0x02, 0x00, 0x00, 0xdc, 0xfb, 0xff, 0xff,
  0x0a, 0xff, 0xff, 0xff, 0x4e, 0x09, 0x00, 0x00, 0x51, 0x03, 0x00, 0x00,
  0xe5, 0xff, 0xff, 0xff, 0xbc, 0x01, 0x00, 0x00, 0x55, 0xfb, 0xff, 0xff,
  0x0a, 0x0a, 0x00, 0x00, 0xa4, 0xff, 0xff, 0xff, 0x26, 0xff, 0xff, 0xff,
  0x04, 0x00, 0x00, 0x00, 0x1e, 0x00, 0x00, 0x00, 0xfe, 0xea, 0x37, 0xc8,
  0x28, 0x0c, 0xb8, 0xba, 0x4e, 0xef, 0x21, 0x35, 0x3f, 0xfb, 0xf9, 0x13,
  0xe8, 0x16, 0x7f, 0x87, 0x55, 0x07, 0xf9, 0x8c, 0x68, 0x4b, 0x02, 0xe5,
  0xa0, 0xd0, 0x00, 0x00, 0x52, 0xff, 0xff, 0xff, 0x04, 0x00, 0x00, 0x00,
  0x08, 0x00, 0x00, 0x00, 0xad, 0x00, 0x00, 0x00, 0x53, 0xff, 0xff, 0xff,
  0x34, 0xff, 0xff, 0xff, 0x0f, 0x00, 0x00, 0x00, 0x54, 0x4f, 0x43, 0x4f,
  0x20, 0x43, 0x6f, 0x6e, 0x76, 0x65, 0x72, 0x74, 0x65, 0x64, 0x2e, 0x00,
  0x01, 0x00, 0x00, 0x00, 0x04, 0x00, 0x00, 0x00, 0x00, 0xf9, 0xff, 0xff,
  0x94, 0x01, 0x00, 0x00, 0x88, 0x01, 0x00, 0x00, 0x7c, 0x01, 0x00, 0x00,
  0x04, 0x00, 0x00, 0x00, 0x06, 0x00, 0x00, 0x00, 0x50, 0x01, 0x00, 0x00,
  0x04, 0x01, 0x00, 0x00, 0xbc, 0x00, 0x00, 0x00, 0x74, 0x00, 0x00, 0x00,
  0x38, 0x00, 0x00, 0x00, 0x04, 0x00, 0x00, 0x00, 0xd2, 0xfe, 0xff, 0xff,
  0x03, 0x00, 0x00, 0x00, 0x10, 0x00, 0x00, 0x00, 0x04, 0x00, 0x00, 0x00,
  0x01, 0x00, 0x00, 0x00, 0x0c, 0x00, 0x00, 0x00, 0x01, 0x00, 0x00, 0x00,
  0x00, 0x00, 0x00, 0x00, 0x00, 0x00, 0x0e, 0x00, 0x1a, 0x00, 0x08, 0x00,
  0x0c, 0x00, 0x10, 0x00, 0x07, 0x00, 0x14, 0x00, 0x0e, 0x00, 0x00, 0x00,
  0x00, 0x00, 0x00, 0x09, 0x01, 0x00, 0x00, 0x00, 0x24, 0x00, 0x00, 0x00,
  0x18, 0x00, 0x00, 0x00, 0x0c, 0x00, 0x00, 0x00, 0x00, 0x00, 0x06, 0x00,
  0x08, 0x00, 0x04, 0x00, 0x06, 0x00, 0x00, 0x00, 0x00, 0x00, 0x80, 0x3f,
  0x01, 0x00, 0x00, 0x00, 0x00, 0x00, 0x00, 0x00, 0x01, 0x00, 0x00, 0x00,
  0x08, 0x00, 0x00, 0x00, 0xca, 0xff, 0xff, 0xff, 0x00, 0x00, 0x00, 0x08,
  0x1c, 0x00, 0x00, 0x00, 0x10, 0x00, 0x00, 0x00, 0x08, 0x00, 0x00, 0x00,
  0x04, 0x00, 0x04, 0x00, 0x04, 0x00, 0x00, 0x00, 0x01, 0x00, 0x00, 0x00,
  0x08, 0x00, 0x00, 0x00, 0x03, 0x00, 0x00, 0x00, 0x07, 0x00, 0x00, 0x00,
  0x09, 0x00, 0x00, 0x00, 0x0a, 0x00, 0x00, 0x00, 0x00, 0x00, 0x0e, 0x00,
  0x14, 0x00, 0x00, 0x00, 0x08, 0x00, 0x0c, 0x00, 0x07, 0x00, 0x10, 0x00,
  0x0e, 0x00, 0x00, 0x00, 0x00, 0x00, 0x00, 0x08, 0x1c, 0x00, 0x00, 0x00,
  0x10, 0x00, 0x00, 0x00, 0x04, 0x00, 0x00, 0x00, 0xba, 0xff, 0xff, 0xff,
  0x00, 0x00, 0x00, 0x01, 0x01, 0x00, 0x00, 0x00, 0x07, 0x00, 0x00, 0x00,
  0x03, 0x00, 0x00, 0x00, 0x04, 0x00, 0x00, 0x00, 0x05, 0x00, 0x00, 0x00,
  0x06, 0x00, 0x00, 0x00, 0x00, 0x00, 0x0e, 0x00, 0x16, 0x00, 0x00, 0x00,
  0x08, 0x00, 0x0c, 0x00, 0x07, 0x00, 0x10, 0x00, 0x0e, 0x00, 0x00, 0x00,
  0x00, 0x00, 0x00, 0x08, 0x24, 0x00, 0x00, 0x00, 0x18, 0x00, 0x00, 0x00,
  0x0c, 0x00, 0x00, 0x00, 0x00, 0x00, 0x06, 0x00, 0x08, 0x00, 0x07, 0x00,
  0x06, 0x00, 0x00, 0x00, 0x00, 0x00, 0x00, 0x01, 0x01, 0x00, 0x00, 0x00,
  0x04, 0x00, 0x00, 0x00, 0x03, 0x00, 0x00, 0x00, 0x01, 0x00, 0x00, 0x00,
  0x02, 0x00, 0x00, 0x00, 0x03, 0x00, 0x00, 0x00, 0x00, 0x00, 0x0a, 0x00,
  0x10, 0x00, 0x04, 0x00, 0x08, 0x00, 0x0c, 0x00, 0x0a, 0x00, 0x00, 0x00,
  0x02, 0x00, 0x00, 0x00, 0x10, 0x00, 0x00, 0x00, 0x04, 0x00, 0x00, 0x00,
  0x01, 0x00, 0x00, 0x00, 0x01, 0x00, 0x00, 0x00, 0x01, 0x00, 0x00, 0x00,
  0x0b, 0x00, 0x00, 0x00, 0x01, 0x00, 0x00, 0x00, 0x0c, 0x00, 0x00, 0x00,
  0x01, 0x00, 0x00, 0x00, 0x0b, 0x00, 0x00, 0x00, 0x0d, 0x00, 0x00, 0x00,
  0xe4, 0x05, 0x00, 0x00, 0x48, 0x05, 0x00, 0x00, 0xa8, 0x04, 0x00, 0x00,
  0x34, 0x04, 0x00, 0x00, 0xb0, 0x03, 0x00, 0x00, 0x0c, 0x03, 0x00, 0x00,
  0x98, 0x02, 0x00, 0x00, 0x14, 0x02, 0x00, 0x00, 0x88, 0x01, 0x00, 0x00,
  0xe4, 0x00, 0x00, 0x00, 0x70, 0x00, 0x00, 0x00, 0x3c, 0x00, 0x00, 0x00,
  0x04, 0x00, 0x00, 0x00, 0xd8, 0xff, 0xff, 0xff, 0x18, 0x00, 0x00, 0x00,
  0x04, 0x00, 0x00, 0x00, 0x08, 0x00, 0x00, 0x00, 0x49, 0x64, 0x65, 0x6e,
  0x74, 0x69, 0x74, 0x79, 0x00, 0x00, 0x00, 0x00, 0x02, 0x00, 0x00, 0x00,
  0x01, 0x00, 0x00, 0x00, 0x02, 0x00, 0x00, 0x00, 0x0c, 0x00, 0x0c, 0x00,
  0x04, 0x00, 0x00, 0x00, 0x00, 0x00, 0x08, 0x00, 0x0c, 0x00, 0x00, 0x00,
  0x20, 0x00, 0x00, 0x00, 0x04, 0x00, 0x00, 0x00, 0x12, 0x00, 0x00, 0x00,
  0x64, 0x65, 0x6e, 0x73, 0x65, 0x5f, 0x44, 0x65, 0x6e, 0x73, 0x65, 0x31,
  0x5f, 0x69, 0x6e, 0x70, 0x75, 0x74, 0x00, 0x00, 0x02, 0x00, 0x00, 0x00,
  0x01, 0x00, 0x00, 0x00, 0x78, 0x00, 0x00, 0x00, 0xc2, 0xfa, 0xff, 0xff,
  0x00, 0x00, 0x00, 0x02, 0x60, 0x00, 0x00, 0x00, 0x01, 0x00, 0x00, 0x00,
  0x2c, 0x00, 0x00, 0x00, 0x04, 0x00, 0x00, 0x00, 0xb4, 0xfa, 0xff, 0xff,
  0x18, 0x00, 0x00, 0x00, 0x04, 0x00, 0x00, 0x00, 0x01, 0x00, 0x00, 0x00,
  0x00, 0x00, 0x00, 0x00, 0x00, 0x00, 0x00, 0x00, 0x00, 0x00, 0x00, 0x00,
  0x01, 0x00, 0x00, 0x00, 0x2c, 0x22, 0x48, 0x38, 0x25, 0x00, 0x00, 0x00,
  0x73, 0x65, 0x71, 0x75, 0x65, 0x6e, 0x74, 0x69, 0x61, 0x6c, 0x5f, 0x31,
  0x2f, 0x64, 0x65, 0x6e, 0x73, 0x65, 0x5f, 0x44, 0x65, 0x6e, 0x73, 0x65,
  0x33, 0x2f, 0x4d, 0x61, 0x74, 0x4d, 0x75, 0x6c, 0x5f, 0x62, 0x69, 0x61,
  0x73, 0x00, 0x00, 0x00, 0x01, 0x00, 0x00, 0x00, 0x02, 0x00, 0x00, 0x00,
  0x32, 0xfb, 0xff, 0xff, 0x00, 0x00, 0x00, 0x09, 0x8c, 0x00, 0x00, 0x00,
  0x02, 0x00, 0x00, 0x00, 0x44, 0x00, 0x00, 0x00, 0x04, 0x00, 0x00, 0x00,
  0xbc, 0xfb, 0xff, 0xff, 0x30, 0x00, 0x00, 0x00, 0x24, 0x00, 0x00, 0x00,
  0x18, 0x00, 0x00, 0x00, 0x04, 0x00, 0x00, 0x00, 0x01, 0x00, 0x00, 0x00,
  0x00, 0x00, 0x00, 0x00, 0x00, 0x00, 0x00, 0x00, 0x00, 0x00, 0x00, 0x00,
  0x01, 0x00, 0x00, 0x00, 0xaf, 0xe5, 0xb1, 0x3b, 0x01, 0x00, 0x00, 0x00,
  0xe4, 0x81, 0x30, 0x3f, 0x01, 0x00, 0x00, 0x00, 0x2c, 0x69, 0x28, 0xbf,
  0x39, 0x00, 0x00, 0x00, 0x73, 0x65, 0x71, 0x75, 0x65, 0x6e, 0x74, 0x69,
  0x61, 0x6c, 0x5f, 0x31, 0x2f, 0x64, 0x65, 0x6e, 0x73, 0x65, 0x5f, 0x44,
  0x65, 0x6e, 0x73, 0x65, 0x33, 0x2f, 0x4d, 0x61, 0x74, 0x4d, 0x75, 0x6c,
  0x2f, 0x52, 0x65, 0x61, 0x64, 0x56, 0x61, 0x72, 0x69, 0x61, 0x62, 0x6c,
  0x65, 0x4f, 0x70, 0x2f, 0x74, 0x72, 0x61, 0x6e, 0x73, 0x70, 0x6f, 0x73,
  0x65, 0x00, 0x00, 0x00, 0x02, 0x00, 0x00, 0x00, 0x02, 0x00, 0x00, 0x00,
  0x0f, 0x00, 0x00, 0x00, 0xd2, 0xfb, 0xff, 0xff, 0x00, 0x00, 0x00, 0x09,
  0x74, 0x00, 0x00, 0x00, 0x0b, 0x00, 0x00, 0x00, 0x44, 0x00, 0x00, 0x00,
  0x04, 0x00, 0x00, 0x00, 0x5c, 0xfc, 0xff, 0xff, 0x30, 0x00, 0x00, 0x00,
  0x24, 0x00, 0x00, 0x00, 0x18, 0x00, 0x00, 0x00, 0x04, 0x00, 0x00, 0x00,
  0x01, 0x00, 0x00, 0x00, 0xc8, 0xff, 0xff, 0xff, 0xff, 0xff, 0xff, 0xff,
  0x00, 0x00, 0x00, 0x00, 0x01, 0x00, 0x00, 0x00, 0xc4, 0x89, 0x32, 0x3c,
  0x01, 0x00, 0x00, 0x00, 0xfb, 0xed, 0xfe, 0x3f, 0x01, 0x00, 0x00, 0x00,
  0xf4, 0x80, 0x49, 0xbf, 0x21, 0x00, 0x00, 0x00, 0x73, 0x65, 0x71, 0x75,
  0x65, 0x6e, 0x74, 0x69, 0x61, 0x6c, 0x5f, 0x31, 0x2f, 0x64, 0x65, 0x6e,
  0x73, 0x65, 0x5f, 0x44, 0x65, 0x6e, 0x73, 0x65, 0x33, 0x2f, 0x42, 0x69,
  0x61, 0x73, 0x41, 0x64, 0x64, 0x00, 0x00, 0x00, 0x02, 0x00, 0x00, 0x00,
  0x01, 0x00, 0x00, 0x00, 0x02, 0x00, 0x00, 0x00, 0x5a, 0xfc, 0xff, 0xff,
  0x00, 0x00, 0x00, 0x09, 0x6c, 0x00, 0x00, 0x00, 0x08, 0x00, 0x00, 0x00,
  0x40, 0x00, 0x00, 0x00, 0x04, 0x00, 0x00, 0x00, 0xe4, 0xfc, 0xff, 0xff,
  0x2c, 0x00, 0x00, 0x00, 0x20, 0x00, 0x00, 0x00, 0x14, 0x00, 0x00, 0x00,
  0x04, 0x00, 0x00, 0x00, 0x01, 0x00, 0x00, 0x00, 0x80, 0xff, 0xff, 0xff,
  0xff, 0xff, 0xff, 0xff, 0x01, 0x00, 0x00, 0x00, 0xd7, 0xff, 0x0f, 0x3c,
  0x01, 0x00, 0x00, 0x00, 0xd7, 0x6f, 0x0f, 0x40, 0x01, 0x00, 0x00, 0x00,
  0x00, 0x00, 0x00, 0x00, 0x1e, 0x00, 0x00, 0x00, 0x73, 0x65, 0x71, 0x75,
  0x65, 0x6e, 0x74, 0x69, 0x61, 0x6c, 0x5f, 0x31, 0x2f, 0x64, 0x65, 0x6e,
  0x73, 0x65, 0x5f, 0x44, 0x65, 0x6e, 0x73, 0x65, 0x32, 0x2f, 0x52, 0x65,
  0x6c, 0x75, 0x00, 0x00, 0x02, 0x00, 0x00, 0x00, 0x01, 0x00, 0x00, 0x00,
  0x0f, 0x00, 0x00, 0x00, 0xda, 0xfc, 0xff, 0xff, 0x00, 0x00, 0x00, 0x02,
  0x60, 0x00, 0x00, 0x00, 0x03, 0x00, 0x00, 0x00, 0x2c, 0x00, 0x00, 0x00,
  0x04, 0x00, 0x00, 0x00, 0xcc, 0xfc, 0xff, 0xff, 0x18, 0x00, 0x00, 0x00,
  0x04, 0x00, 0x00, 0x00, 0x01, 0x00, 0x00, 0x00, 0x00, 0x00, 0x00, 0x00,
  0x00, 0x00, 0x00, 0x00, 0x00, 0x00, 0x00, 0x00, 0x01, 0x00, 0x00, 0x00,
  0x80, 0x6a, 0xb7, 0x37, 0x25, 0x00, 0x00, 0x00, 0x73, 0x65, 0x71, 0x75,
  0x65, 0x6e, 0x74, 0x69, 0x61, 0x6c, 0x5f, 0x31, 0x2f, 0x64, 0x65, 0x6e,
  0x73, 0x65, 0x5f, 0x44, 0x65, 0x6e, 0x73, 0x65, 0x32, 0x2f, 0x4d, 0x61,
  0x74, 0x4d, 0x75, 0x6c, 0x5f, 0x62, 0x69, 0x61, 0x73, 0x00, 0x00, 0x00,
  0x01, 0x00, 0x00, 0x00, 0x0f, 0x00, 0x00, 0x00, 0x4a, 0xfd, 0xff, 0xff,
  0x00, 0x00, 0x00, 0x09, 0x8c, 0x00, 0x00, 0x00, 0x06, 0x00, 0x00, 0x00,
  0x44, 0x00, 0x00, 0x00, 0x04, 0x00, 0x00, 0x00, 0xd4, 0xfd, 0xff, 0xff,
  0x30, 0x00, 0x00, 0x00, 0x24, 0x00, 0x00, 0x00, 0x18, 0x00, 0x00, 0x00,
  0x04, 0x00, 0x00, 0x00, 0x01, 0x00, 0x00, 0x00, 0x00, 0x00, 0x00, 0x00,
  0x00, 0x00, 0x00, 0x00, 0x00, 0x00, 0x00, 0x00, 0x01, 0x00, 0x00, 0x00,
  0xeb, 0x06, 0x50, 0x3b, 0x01, 0x00, 0x00, 0x00, 0xdd, 0x66, 0xce, 0x3e,
  0x01, 0x00, 0x00, 0x00, 0x24, 0x1a, 0xb6, 0xbe, 0x39, 0x00, 0x00, 0x00,
  0x73, 0x65, 0x71, 0x75, 0x65, 0x6e, 0x74, 0x69, 0x61, 0x6c, 0x5f, 0x31,
  0x2f, 0x64, 0x65, 0x6e, 0x73, 0x65, 0x5f, 0x44, 0x65, 0x6e, 0x73, 0x65,
  0x32, 0x2f, 0x4d, 0x61, 0x74, 0x4d, 0x75, 0x6c, 0x2f, 0x52, 0x65, 0x61,
  0x64, 0x56, 0x61, 0x72, 0x69, 0x61, 0x62, 0x6c, 0x65, 0x4f, 0x70, 0x2f,
  0x74, 0x72, 0x61, 0x6e, 0x73, 0x70, 0x6f, 0x73, 0x65, 0x00, 0x00, 0x00,
  0x02, 0x00, 0x00, 0x00, 0x0f, 0x00, 0x00, 0x00, 0x32, 0x00, 0x00, 0x00,
  0xea, 0xfd, 0xff, 0xff, 0x00, 0x00, 0x00, 0x09, 0x6c, 0x00, 0x00, 0x00,
  0x0a, 0x00, 0x00, 0x00, 0x40, 0x00, 0x00, 0x00, 0x04, 0x00, 0x00, 0x00,
  0x74, 0xfe, 0xff, 0xff, 0x2c, 0x00, 0x00, 0x00, 0x20, 0x00, 0x00, 0x00,
  0x14, 0x00, 0x00, 0x00, 0x04, 0x00, 0x00, 0x00, 0x01, 0x00, 0x00, 0x00,
  0x80, 0xff, 0xff, 0xff, 0xff, 0xff, 0xff, 0xff, 0x01, 0x00, 0x00, 0x00,
  0xa6, 0xb6, 0xe1, 0x3b, 0x01, 0x00, 0x00, 0x00, 0xef, 0xd4, 0xe0, 0x3f,
  0x01, 0x00, 0x00, 0x00, 0x00, 0x00, 0x00, 0x00, 0x1e, 0x00, 0x00, 0x00,
  0x73, 0x65, 0x71, 0x75, 0x65, 0x6e, 0x74, 0x69, 0x61, 0x6c, 0x5f, 0x31,
  0x2f, 0x64, 0x65, 0x6e, 0x73, 0x65, 0x5f, 0x44, 0x65, 0x6e, 0x73, 0x65,
  0x31, 0x2f, 0x52, 0x65, 0x6c, 0x75, 0x00, 0x00, 0x02, 0x00, 0x00, 0x00,
  0x01, 0x00, 0x00, 0x00, 0x32, 0x00, 0x00, 0x00, 0x6a, 0xfe, 0xff, 0xff,
  0x00, 0x00, 0x00, 0x02, 0x60, 0x00, 0x00, 0x00, 0x04, 0x00, 0x00, 0x00,
  0x2c, 0x00, 0x00, 0x00, 0x04, 0x00, 0x00, 0x00, 0x5c, 0xfe, 0xff, 0xff,
  0x18, 0x00, 0x00, 0x00, 0x04, 0x00, 0x00, 0x00, 0x01, 0x00, 0x00, 0x00,
  0x00, 0x00, 0x00, 0x00, 0x00, 0x00, 0x00, 0x00, 0x00, 0x00, 0x00, 0x00,
  0x01, 0x00, 0x00, 0x00, 0xad, 0x11, 0x8e, 0x37, 0x25, 0x00, 0x00, 0x00,
  0x73, 0x65, 0x71, 0x75, 0x65, 0x6e, 0x74, 0x69, 0x61, 0x6c, 0x5f, 0x31,
  0x2f, 0x64, 0x65, 0x6e, 0x73, 0x65, 0x5f, 0x44, 0x65, 0x6e, 0x73, 0x65,
  0x31, 0x2f, 0x4d, 0x61, 0x74, 0x4d, 0x75, 0x6c, 0x5f, 0x62, 0x69, 0x61,
  0x73, 0x00, 0x00, 0x00, 0x01, 0x00, 0x00, 0x00, 0x32, 0x00, 0x00, 0x00,
  0xda, 0xfe, 0xff, 0xff, 0x00, 0x00, 0x00, 0x09, 0x88, 0x00, 0x00, 0x00,
  0x09, 0x00, 0x00, 0x00, 0x40, 0x00, 0x00, 0x00, 0x04, 0x00, 0x00, 0x00,
  0x64, 0xff, 0xff, 0xff, 0x2c, 0x00, 0x00, 0x00, 0x20, 0x00, 0x00, 0x00,
  0x14, 0x00, 0x00, 0x00, 0x04, 0x00, 0x00, 0x00, 0x01, 0x00, 0x00, 0x00,
  0x00, 0x00, 0x00, 0x00, 0x00, 0x00, 0x00, 0x00, 0x01, 0x00, 0x00, 0x00,
  0x08, 0x88, 0x0d, 0x3b, 0x01, 0x00, 0x00, 0x00, 0x11, 0xdc, 0x83, 0x3e,
  0x01, 0x00, 0x00, 0x00, 0xf8, 0x6c, 0x8c, 0xbe, 0x39, 0x00, 0x00, 0x00,
  0x73, 0x65, 0x71, 0x75, 0x65, 0x6e, 0x74, 0x69, 0x61, 0x6c, 0x5f, 0x31,
  0x2f, 0x64, 0x65, 0x6e, 0x73, 0x65, 0x5f, 0x44, 0x65, 0x6e, 0x73, 0x65,
  0x31, 0x2f, 0x4d, 0x61, 0x74, 0x4d, 0x75, 0x6c, 0x2f, 0x52, 0x65, 0x61,
  0x64, 0x56, 0x61, 0x72, 0x69, 0x61, 0x62, 0x6c, 0x65, 0x4f, 0x70, 0x2f,
  0x74, 0x72, 0x61, 0x6e, 0x73, 0x70, 0x6f, 0x73, 0x65, 0x00, 0x00, 0x00,
  0x02, 0x00, 0x00, 0x00, 0x32, 0x00, 0x00, 0x00, 0x78, 0x00, 0x00, 0x00,
  0x76, 0xff, 0xff, 0xff, 0x00, 0x00, 0x00, 0x09, 0x74, 0x00, 0x00, 0x00,
  0x07, 0x00, 0x00, 0x00, 0x50, 0x00, 0x00, 0x00, 0x10, 0x00, 0x00, 0x00,
  0x0c, 0x00, 0x14, 0x00, 0x04, 0x00, 0x08, 0x00, 0x0c, 0x00, 0x10, 0x00,
  0x0c, 0x00, 0x00, 0x00, 0x30, 0x00, 0x00, 0x00, 0x24, 0x00, 0x00, 0x00,
  0x18, 0x00, 0x00, 0x00, 0x04, 0x00, 0x00, 0x00, 0x01, 0x00, 0x00, 0x00,
  0x00, 0x00, 0x00, 0x00, 0x00, 0x00, 0x00, 0x00, 0x00, 0x00, 0x00, 0x00,
  0x01, 0x00, 0x00, 0x00, 0x7c, 0x7c, 0x00, 0x3c, 0x01, 0x00, 0x00, 0x00,
  0x00, 0xf8, 0x7f, 0x3f, 0x01, 0x00, 0x00, 0x00, 0x00, 0xf8, 0x7f, 0xbf,
  0x17, 0x00, 0x00, 0x00, 0x64, 0x65, 0x6e, 0x73, 0x65, 0x5f, 0x44, 0x65,
  0x6e, 0x73, 0x65, 0x31, 0x5f, 0x69, 0x6e, 0x70, 0x75, 0x74, 0x5f, 0x69,
  0x6e, 0x74, 0x38, 0x00, 0x02, 0x00, 0x00, 0x00, 0x01, 0x00, 0x00, 0x00,
  0x78, 0x00, 0x00, 0x00, 0x00, 0x00, 0x0e, 0x00, 0x18, 0x00, 0x08, 0x00,
  0x07, 0x00, 0x0c, 0x00, 0x10, 0x00, 0x14, 0x00, 0x0e, 0x00, 0x00, 0x00,
  0x00, 0x00, 0x00, 0x09, 0x54, 0x00, 0x00, 0x00, 0x05, 0x00, 0x00, 0x00,
  0x38, 0x00, 0x00, 0x00, 0x10, 0x00, 0x00, 0x00, 0x0c, 0x00, 0x0c, 0x00,
  0x00, 0x00, 0x00, 0x00, 0x04, 0x00, 0x08, 0x00, 0x0c, 0x00, 0x00, 0x00,
  0x18, 0x00, 0x00, 0x00, 0x04, 0x00, 0x00, 0x00, 0x01, 0x00, 0x00, 0x00,
  0x80, 0xff, 0xff, 0xff, 0xff, 0xff, 0xff, 0xff, 0x00, 0x00, 0x00, 0x00,
  0x01, 0x00, 0x00, 0x00, 0x00, 0x00, 0x80, 0x3b, 0x0d, 0x00, 0x00, 0x00,
  0x49, 0x64, 0x65, 0x6e, 0x74, 0x69, 0x74, 0x79, 0x5f, 0x69, 0x6e, 0x74,
  0x38, 0x00, 0x00, 0x00, 0x02, 0x00, 0x00, 0x00, 0x01, 0x00, 0x00, 0x00,
  0x02, 0x00, 0x00, 0x00, 0x04, 0x00, 0x00, 0x00, 0x4c, 0x00, 0x00, 0x00,
  0x30, 0x00, 0x00, 0x00, 0x1c, 0x00, 0x00, 0x00, 0x04, 0x00, 0x00, 0x00,
  0xe6, 0xff, 0xff, 0xff, 0x00, 0x00, 0x00, 0x06, 0x02, 0x00, 0x00, 0x00,
  0x00, 0x00, 0x06, 0x00, 0x06, 0x00, 0x05, 0x00, 0x06, 0x00, 0x00, 0x00,
  0x00, 0x72, 0x0a, 0x00, 0x0e, 0x00, 0x07, 0x00, 0x00, 0x00, 0x08, 0x00,
  0x0a, 0x00, 0x00, 0x00, 0x00, 0x00, 0x00, 0x19, 0x02, 0x00, 0x00, 0x00,
  0x00, 0x00, 0x0a, 0x00, 0x0c, 0x00, 0x07, 0x00, 0x00, 0x00, 0x08, 0x00,
  0x0a, 0x00, 0x00, 0x00, 0x00, 0x00, 0x00, 0x09, 0x04, 0x00, 0x00, 0x00

};