const unsigned char model[] = {
  0x1c, 0x00, 0x00, 0x00, 0x54, 0x46, 0x4c, 0x33, 0x00, 0x00, 0x12, 0x00,
  0x1c, 0x00, 0x04, 0x00, 0x08, 0x00, 0x0c, 0x00, 0x10, 0x00, 0x14, 0x00,
  0x00, 0x00, 0x18, 0x00, 0x12, 0x00, 0x00, 0x00, 0x03, 0x00, 0x00, 0x00,
  0x98, 0x24, 0x00, 0x00, 0xa4, 0x1c, 0x00, 0x00, 0x8c, 0x1c, 0x00, 0x00,
  0x3c, 0x00, 0x00, 0x00, 0x04, 0x00, 0x00, 0x00, 0x01, 0x00, 0x00, 0x00,
  0x0c, 0x00, 0x00, 0x00, 0x08, 0x00, 0x0c, 0x00, 0x04, 0x00, 0x08, 0x00,
  0x08, 0x00, 0x00, 0x00, 0x08, 0x00, 0x00, 0x00, 0x0c, 0x00, 0x00, 0x00,
  0x13, 0x00, 0x00, 0x00, 0x6d, 0x69, 0x6e, 0x5f, 0x72, 0x75, 0x6e, 0x74,
  0x69, 0x6d, 0x65, 0x5f, 0x76, 0x65, 0x72, 0x73, 0x69, 0x6f, 0x6e, 0x00,
  0x0d, 0x00, 0x00, 0x00, 0x44, 0x1c, 0x00, 0x00, 0x28, 0x1c, 0x00, 0x00,
  0xdc, 0x1b, 0x00, 0x00, 0x9c, 0x1b, 0x00, 0x00, 0x9c, 0x18, 0x00, 0x00,
  0xc4, 0x17, 0x00, 0x00, 0x44, 0x00, 0x00, 0x00, 0x3c, 0x00, 0x00, 0x00,
  0x34, 0x00, 0x00, 0x00, 0x2c, 0x00, 0x00, 0x00, 0x24, 0x00, 0x00, 0x00,
  0x1c, 0x00, 0x00, 0x00, 0x04, 0x00, 0x00, 0x00, 0x56, 0xe3, 0xff, 0xff,
  0x04, 0x00, 0x00, 0x00, 0x05, 0x00, 0x00, 0x00, 0x31, 0x2e, 0x35, 0x2e,
  0x30, 0x00, 0x00, 0x00, 0x38, 0xe3, 0xff, 0xff, 0x3c, 0xe3, 0xff, 0xff,
  0x40, 0xe3, 0xff, 0xff, 0x44, 0xe3, 0xff, 0xff, 0x48, 0xe3, 0xff, 0xff,
  0x7e, 0xe3, 0xff, 0xff, 0x04, 0x00, 0x00, 0x00, 0x70, 0x17, 0x00, 0x00,
  0x22, 0x09, 0x2e, 0x02, 0xff, 0xd0, 0xe5, 0xd1, 0x05, 0xff, 0xfd, 0xb4,
  0x2a, 0x17, 0x12, 0x06, 0xef, 0xfb, 0xf9, 0x26, 0xc0, 0x27, 0x17, 0x05,
  0x21, 0xfc, 0xe9, 0x03, 0x31, 0x32, 0xf7, 0x0a, 0x2c, 0x33, 0xb6, 0x1b,
  0x31, 0x24, 0x18, 0xf5, 0x12, 0x20, 0xdb, 0xc5, 0xe9, 0xfc, 0xc7, 0xd7,
  0x3c, 0x0a, 0x0b, 0x07, 0xfe, 0xef, 0xfa, 0x5b, 0xbe, 0xf9, 0x1c, 0x1d,
  0x32, 0xbd, 0xbf, 0x06, 0xdd, 0x17, 0xe8, 0x1c, 0x14, 0x32, 0x18, 0xfa,
  0x2a, 0xf7, 0x20, 0xfd, 0x29, 0x33, 0xa9, 0x0f, 0x05, 0xdd, 0xf9, 0x0b,
  0x09, 0x4b, 0xcc, 0xec, 0x11, 0xee, 0x0f, 0xf3, 0xb4, 0x4a, 0xe4, 0xf0,
  0x0a, 0xf7, 0x1f, 0x12, 0x08, 0x15, 0x1d, 0x04, 0xf3, 0x08, 0xe1, 0xbf,
  0x17, 0xf4, 0xd3, 0xc3, 0xd1, 0x0b, 0x32, 0x19, 0xd6, 0x2b, 0xd3, 0x4b,
  0x1d, 0x1d, 0xf3, 0xea, 0xf6, 0x07, 0xf3, 0xfd, 0x24, 0x0b, 0x2c, 0x03,
  0xd9, 0xbd, 0x10, 0xd2, 0xcd, 0xf6, 0xff, 0xfb, 0x04, 0xd0, 0xcd, 0x23,
  0x0c, 0xf4, 0x2c, 0x15, 0xf7, 0x2c, 0xc8, 0xb3, 0x05, 0x20, 0x35, 0x1e,
  0x1b, 0xf1, 0xba, 0xca, 0xf7, 0x14, 0xd0, 0x03, 0xd4, 0x0d, 0x2a, 0xfe,
  0xaf, 0xdc, 0xf5, 0x0c, 0x1e, 0xfe, 0xd5, 0xe3, 0xd5, 0x27, 0xe8, 0x3f,
  0x1b, 0x3a, 0xfa, 0xef, 0xdd, 0xe7, 0xed, 0x43, 0xe1, 0xe8, 0x14, 0x2e,
  0x27, 0xdd, 0xe0, 0xf7, 0x2c, 0x36, 0xbf, 0x0b, 0xf0, 0x12, 0x33, 0xd5,
  0xe3, 0xfb, 0x06, 0x42, 0x07, 0xe7, 0x14, 0x09, 0x09, 0xfd, 0x16, 0x32,
  0xf2, 0x27, 0x06, 0xe4, 0xdc, 0x03, 0x0e, 0x2c, 0x11, 0x11, 0x22, 0xf1,
  0xf1, 0xf2, 0xba, 0xfa, 0x32, 0xe5, 0xf3, 0xfd, 0x18, 0xef, 0x53, 0xf2,
  0xb9, 0x31, 0xf0, 0xec, 0xcb, 0xe5, 0xbc, 0x16, 0x45, 0xe5, 0x0d, 0xda,
  0xd1, 0x25, 0x43, 0xfc, 0x00, 0x47, 0xa2, 0xf2, 0x01, 0x47, 0x65, 0xa8,
  0xb1, 0x02, 0xff, 0xba, 0x20, 0x05, 0xa3, 0xdc, 0xed, 0xc7, 0x3a, 0x49,
  0xbb, 0x07, 0x1e, 0x0a, 0x0b, 0x44, 0xbc, 0xea, 0x00, 0xfa, 0xbf, 0x20,
  0xb8, 0x38, 0xc0, 0xea, 0x0f, 0x10, 0xed, 0x07, 0x1d, 0x1d, 0xc7, 0x14,
  0xf9, 0x2b, 0x32, 0xe3, 0xf9, 0x29, 0x06, 0x0e, 0xea, 0xb8, 0xe5, 0x34,
  0xf6, 0x0e, 0x38, 0x29, 0xf9, 0xee, 0x19, 0x50, 0x02, 0xeb, 0x21, 0x06,
  0x31, 0xfb, 0x01, 0x15, 0xe1, 0x25, 0x03, 0x17, 0x35, 0xbb, 0x32, 0x2c,
  0xc5, 0xe6, 0x1d, 0xf1, 0xec, 0x1f, 0xe7, 0xfd, 0x07, 0x08, 0x33, 0x18,
  0xf9, 0xd0, 0x1c, 0x17, 0xc3, 0x41, 0x1b, 0xc7, 0xb1, 0x01, 0x17, 0x14,
  0xff, 0x1f, 0x08, 0xe8, 0x53, 0xee, 0xf0, 0xd0, 0xd6, 0xc1, 0xd9, 0x22,
  0x16, 0x0e, 0x23, 0x2a, 0x18, 0xee, 0x3b, 0x22, 0x36, 0x2b, 0x4b, 0x19,
  0xeb, 0xf2, 0x04, 0x25, 0x08, 0xe6, 0x1b, 0x29, 0xf8, 0x09, 0x23, 0x03,
  0xe9, 0xb1, 0x53, 0x04, 0x1a, 0x41, 0x1d, 0x08, 0xf4, 0xf8, 0xe3, 0xf5,
  0xfc, 0xf5, 0xf5, 0x29, 0x13, 0xfe, 0x38, 0x48, 0xad, 0x07, 0xe2, 0x2d,
  0xb6, 0x08, 0x32, 0xb7, 0xe5, 0x38, 0x50, 0x27, 0x0f, 0x06, 0xd0, 0xd3,
  0xff, 0x58, 0x08, 0x0f, 0x19, 0xfb, 0xfb, 0x01, 0xd6, 0xe9, 0x58, 0xba,
  0xf6, 0xe2, 0x0d, 0x09, 0xdd, 0xcd, 0xad, 0x24, 0xfb, 0x18, 0xef, 0xed,
  0xed, 0xd8, 0x0b, 0x39, 0xed, 0x09, 0xce, 0x03, 0x2e, 0xe8, 0x13, 0xd1,
  0xd4, 0x24, 0x02, 0xf2, 0x15, 0xd8, 0xca, 0xed, 0x03, 0x10, 0xcb, 0x1c,
  0xe6, 0x21, 0x09, 0xda, 0x1e, 0xf0, 0x03, 0xf6, 0x0c, 0x18, 0x21, 0xf9,
  0x36, 0x17, 0xeb, 0xe0, 0xbd, 0x0c, 0xef, 0x44, 0xfe, 0xd6, 0x25, 0xec,
  0x0e, 0xde, 0xce, 0xb6, 0x1d, 0x4c, 0x01, 0xfa, 0x52, 0xe7, 0xe2, 0x11,
  0xb9, 0xc8, 0xef, 0xbc, 0x17, 0x11, 0x25, 0xf3, 0xe1, 0x20, 0x1f, 0x0b,
  0xf5, 0xf9, 0xf8, 0xd0, 0xb3, 0x16, 0x9f, 0xf0, 0xde, 0x00, 0x2f, 0x1a,
  0x06, 0x4b, 0x28, 0xc8, 0xff, 0x08, 0x45, 0xfe, 0xf7, 0x0e, 0xb1, 0x43,
  0xd7, 0xce, 0x44, 0xf9, 0xf5, 0xf5, 0xf3, 0x07, 0xcb, 0xe6, 0xec, 0x04,
  0x04, 0x07, 0xf5, 0xe3, 0x31, 0xf0, 0xbe, 0xe6, 0xd3, 0xec, 0xd5, 0x10,
  0xee, 0x42, 0xa2, 0x4c, 0x0d, 0xc1, 0xaf, 0xfa, 0x04, 0xf1, 0xe8, 0xf3,
  0xbf, 0x36, 0x18, 0x14, 0x25, 0x0d, 0x17, 0x43, 0xb8, 0xee, 0x02, 0xf7,
  0x1a, 0x22, 0x11, 0x16, 0x3b, 0x5b, 0x11, 0x15, 0x08, 0x0e, 0xf6, 0x06,
  0xf2, 0x3e, 0x0b, 0xe0, 0xf6, 0x3c, 0xd3, 0x5c, 0x29, 0xf9, 0x2a, 0xc4,
  0xe9, 0x0d, 0xff, 0xf7, 0x16, 0x1d, 0x18, 0x6a, 0x36, 0xf2, 0xea, 0x1f,
  0x24, 0x29, 0x23, 0xb5, 0x1c, 0x15, 0x5c, 0x0b, 0x06, 0xed, 0xee, 0x2b,
  0x38, 0x19, 0xca, 0x0f, 0xbc, 0xdd, 0x24, 0x0c, 0xdb, 0xad, 0xec, 0xbf,
  0x6a, 0x10, 0x3b, 0xfa, 0x17, 0x30, 0xe6, 0x00, 0xec, 0xe5, 0x2f, 0x47,
  0x06, 0xba, 0xca, 0xff, 0x12, 0x17, 0xde, 0xc8, 0x0c, 0xda, 0xff, 0x22,
  0xe5, 0xdf, 0xc0, 0x03, 0xff, 0xbb, 0xe9, 0xf2, 0x2d, 0x24, 0xc4, 0x3f,
  0x04, 0xbc, 0xf6, 0x2b, 0xbb, 0x14, 0x06, 0xb4, 0x09, 0xb6, 0xe8, 0x64,
  0xf7, 0xd5, 0xdd, 0x0c, 0x25, 0xec, 0xbc, 0x40, 0x27, 0x1f, 0x1a, 0x11,
  0x38, 0x40, 0x5a, 0xe9, 0xe2, 0x10, 0x12, 0x1e, 0xd1, 0x27, 0x42, 0xc4,
  0xfb, 0x35, 0x2d, 0x22, 0x16, 0xd0, 0xba, 0xe6, 0xd2, 0xcb, 0x1d, 0x46,
  0xde, 0x36, 0xf1, 0xf9, 0x13, 0xdd, 0xf9, 0xc4, 0x1f, 0x31, 0x0b, 0xbc,
  0x0d, 0xd2, 0xf2, 0x17, 0x20, 0xef, 0x16, 0x33, 0xdf, 0xc1, 0xd3, 0x0b,
  0x13, 0xe6, 0xd3, 0xf4, 0xf4, 0xfa, 0xc4, 0xe6, 0xd2, 0xbb, 0xeb, 0x50,
  0xf6, 0xa5, 0xe2, 0x12, 0xdd, 0x34, 0xf3, 0x30, 0x10, 0x0e, 0x01, 0xbb,
  0xdd, 0xd5, 0x06, 0xd6, 0x17, 0x13, 0x11, 0x48, 0xb5, 0x00, 0xd7, 0x0a,
  0xc9, 0xd3, 0xff, 0x15, 0xca, 0x01, 0xf5, 0x00, 0xbf, 0x49, 0x36, 0xda,
  0x13, 0x3d, 0x2c, 0xed, 0x05, 0x1e, 0x63, 0xe4, 0x0c, 0xc4, 0x02, 0x20,
  0xea, 0xc5, 0x01, 0x24, 0xb1, 0x48, 0x0a, 0x46, 0xb4, 0xf2, 0xd6, 0xda,
  0xcb, 0xaf, 0x3d, 0xf3, 0x39, 0x43, 0xff, 0x17, 0x34, 0x1e, 0x16, 0xf5,
  0xc2, 0xfa, 0xff, 0x23, 0x26, 0x0d, 0xf0, 0x1c, 0xc5, 0xdd, 0x5c, 0xd5,
  0xce, 0x1d, 0xdb, 0x10, 0xb4, 0xd1, 0x24, 0x2a, 0x1b, 0x3b, 0xf3, 0x59,
  0x12, 0xb7, 0x17, 0x17, 0x31, 0xfb, 0xca, 0x06, 0xc7, 0x10, 0x17, 0xd3,
  0xd7, 0xe4, 0xc6, 0x2d, 0x36, 0x4a, 0x08, 0x2a, 0x0d, 0xfb, 0xe0, 0x13,
  0xdd, 0xdb, 0x43, 0x09, 0xe7, 0xed, 0xe9, 0xe7, 0x33, 0x49, 0x21, 0x0d,
  0x27, 0xd5, 0x2a, 0x34, 0xf1, 0x26, 0xff, 0xec, 0x49, 0x02, 0xb8, 0x14,
  0x4a, 0xb7, 0x28, 0xfe, 0xf6, 0xc7, 0xfb, 0x2e, 0xf5, 0xe4, 0xdb, 0x2f,
  0xfb, 0xd5, 0x4b, 0xfb, 0x0d, 0xd2, 0xaf, 0x40, 0x25, 0xb0, 0x39, 0x13,
  0x33, 0xb7, 0x3a, 0x00, 0xe8, 0x20, 0xf6, 0xf1, 0x18, 0x52, 0x3f, 0xea,
  0x10, 0x14, 0xac, 0xf4, 0x29, 0x1d, 0x22, 0x31, 0xb5, 0xf4, 0x11, 0xdc,
  0x37, 0xb0, 0x29, 0xf7, 0x38, 0xe3, 0xfe, 0x25, 0x32, 0x0c, 0x08, 0x41,
  0x23, 0xc2, 0x2d, 0x21, 0x40, 0xbe, 0xf3, 0x0e, 0x43, 0xf3, 0xc6, 0x25,
  0x0d, 0x01, 0xe7, 0xbc, 0xe5, 0x3f, 0x52, 0x1c, 0xc9, 0xeb, 0xfa, 0x02,
  0xc3, 0x1b, 0x12, 0xd8, 0x01, 0x3c, 0x0a, 0x05, 0x42, 0x06, 0x36, 0x03,
  0xff, 0x1c, 0x3c, 0x1e, 0x06, 0x1e, 0x22, 0xfe, 0xd2, 0x0b, 0x06, 0x0c,
  0x14, 0x43, 0x03, 0x14, 0x05, 0x17, 0x5a, 0x05, 0x00, 0x05, 0xfc, 0x0d,
  0x2e, 0xec, 0xb6, 0x1b, 0x13, 0x2e, 0x10, 0x28, 0x17, 0x41, 0xc5, 0xe8,
  0x23, 0xc7, 0x23, 0x49, 0x14, 0x48, 0x0f, 0xc3, 0x12, 0xdc, 0xe2, 0x2c,
  0x49, 0x1e, 0xe8, 0x3d, 0x1b, 0x04, 0xd8, 0xad, 0xd4, 0x12, 0xe8, 0xc1,
  0x11, 0xe8, 0xff, 0x11, 0x14, 0x03, 0xa4, 0xf2, 0x42, 0xb0, 0xfd, 0x04,
  0xca, 0x1f, 0x25, 0x1f, 0xec, 0xea, 0x9d, 0x4d, 0x12, 0x0f, 0xcf, 0xbe,
  0xc2, 0xff, 0xec, 0xfc, 0xdc, 0xeb, 0xc4, 0xc8, 0xea, 0x01, 0xfd, 0xdf,
  0x00, 0x5d, 0xc5, 0xd8, 0xe1, 0xcf, 0xe8, 0x03, 0x0e, 0x34, 0xee, 0xcc,
  0xfd, 0x00, 0xf3, 0xbf, 0x1e, 0xd7, 0x2b, 0xc3, 0xe0, 0xd4, 0xb3, 0xd1,
  0x18, 0xcb, 0xf9, 0x0c, 0x1a, 0xac, 0x58, 0x1e, 0xeb, 0xf1, 0x22, 0x02,
  0x4f, 0xe6, 0x14, 0x2f, 0xd8, 0xb9, 0x06, 0xb4, 0xed, 0xdd, 0x09, 0xe5,
  0x66, 0xa3, 0x0d, 0x02, 0xf8, 0x38, 0x1c, 0xe6, 0xef, 0x26, 0xe2, 0x2c,
  0xcd, 0xcc, 0xf4, 0x24, 0xc8, 0x01, 0xfa, 0xcc, 0xdb, 0xd2, 0x20, 0xea,
  0x07, 0xa7, 0x44, 0xf8, 0x04, 0x06, 0xfc, 0xc3, 0xcd, 0xa8, 0x38, 0x30,
  0xfc, 0xf9, 0xf3, 0xbe, 0x0f, 0xbc, 0x2f, 0xc3, 0xf7, 0xea, 0xce, 0x29,
  0x32, 0x29, 0xc8, 0x04, 0x2b, 0x24, 0xea, 0x1f, 0x04, 0x0a, 0x00, 0xbf,
  0xf9, 0x05, 0xfb, 0xef, 0x23, 0x59, 0xd9, 0x53, 0xc6, 0x06, 0x49, 0x54,
  0x1d, 0x3a, 0x09, 0x31, 0x06, 0x16, 0x02, 0xe7, 0x06, 0xda, 0x0f, 0x3b,
  0x20, 0x17, 0xd6, 0x0a, 0x01, 0xf1, 0xf1, 0x12, 0x12, 0x3f, 0xf1, 0xd8,
  0xf7, 0x28, 0x22, 0x3a, 0x0e, 0xca, 0x1b, 0x28, 0xcf, 0x18, 0x41, 0x1f,
  0xea, 0x31, 0xc5, 0x12, 0xfc, 0xc7, 0xff, 0xdf, 0x0b, 0x53, 0x4c, 0xe1,
  0x2b, 0xeb, 0xee, 0xe1, 0xf2, 0x0c, 0x0e, 0xfd, 0xee, 0xc0, 0xe0, 0x0a,
  0xeb, 0xbc, 0xda, 0xd1, 0xf1, 0xeb, 0xd3, 0xdf, 0xd1, 0x0e, 0xc6, 0x3c,
  0x13, 0x1d, 0xdc, 0xb4, 0x40, 0x05, 0x11, 0x2b, 0xff, 0x14, 0x17, 0xe3,
  0xf2, 0x11, 0x44, 0xfd, 0x2c, 0xec, 0x1e, 0xd6, 0x1b, 0xc3, 0x10, 0x1e,
  0xe6, 0xfd, 0xcd, 0x06, 0xaa, 0xd8, 0x1a, 0x1b, 0x36, 0xa6, 0xa7, 0xee,
  0xdf, 0xc8, 0x23, 0x12, 0xf8, 0xcc, 0xfb, 0x00, 0xfe, 0xec, 0x1b, 0x08,
  0x14, 0xf4, 0x35, 0xeb, 0xef, 0xce, 0xce, 0x27, 0x23, 0xae, 0xe1, 0xba,
  0xdd, 0x40, 0x2c, 0xf2, 0x21, 0xb1, 0xd6, 0x1a, 0xf4, 0x13, 0xfc, 0x55,
  0xfb, 0xf8, 0xcd, 0x05, 0xf9, 0x25, 0xeb, 0x10, 0xab, 0x0e, 0xdc, 0x2f,
  0xf3, 0x61, 0xd5, 0xdb, 0x26, 0x1c, 0xf8, 0x4c, 0xe6, 0xc0, 0xda, 0x0a,
  0x41, 0x1d, 0x19, 0x0e, 0x08, 0xf8, 0xec, 0x02, 0x1a, 0xdc, 0xba, 0xff,
  0xdd, 0x3e, 0xdd, 0xf4, 0x38, 0x0b, 0x04, 0x14, 0xe8, 0x3c, 0xab, 0xca,
  0xf0, 0x11, 0x33, 0x0d, 0x24, 0x0f, 0xe9, 0xfe, 0x38, 0x20, 0x48, 0xb9,
  0xcf, 0x0a, 0x09, 0xe1, 0xd2, 0xc2, 0xfa, 0x01, 0xcc, 0x27, 0x22, 0xbf,
  0x2a, 0x53, 0x12, 0x2c, 0x03, 0xc8, 0x0e, 0x2a, 0x11, 0xdf, 0xcd, 0x18,
  0x26, 0x09, 0xef, 0x2f, 0x32, 0x00, 0x32, 0xb3, 0xe2, 0xb1, 0x17, 0xe0,
  0xc9, 0x44, 0x02, 0xd4, 0xee, 0x21, 0xea, 0xbd, 0xe0, 0xef, 0xe0, 0xe0,
  0xd4, 0xb8, 0xc4, 0xfa, 0x1e, 0x09, 0x19, 0x33, 0xed, 0xbe, 0x09, 0x2a,
  0xb8, 0xd1, 0xef, 0x20, 0x3d, 0x44, 0xfe, 0x19, 0xdb, 0xeb, 0x1e, 0xa5,
  0x00, 0x10, 0x3a, 0xeb, 0x10, 0xc6, 0x1d, 0x22, 0xea, 0x35, 0xbb, 0x22,
  0x3c, 0xe4, 0xef, 0x39, 0xff, 0xb0, 0xd3, 0xcd, 0x08, 0x01, 0x10, 0xc2,
  0xe5, 0x00, 0xe1, 0xed, 0x02, 0x33, 0xa6, 0x34, 0xea, 0xfa, 0xec, 0x0e,
  0xf8, 0xde, 0x1b, 0x03, 0x0c, 0x0f, 0x07, 0xdd, 0x2d, 0x32, 0xb9, 0xff,
  0xaa, 0x54, 0xc9, 0xbe, 0xd9, 0xbf, 0xcb, 0xf6, 0x40, 0x02, 0x3c, 0xe1,
  0x1a, 0x33, 0xb9, 0x27, 0xfd, 0xeb, 0x3a, 0xd4, 0x17, 0xc7, 0xf6, 0xfb,
  0xcb, 0xe7, 0xe9, 0x18, 0x01, 0x1b, 0xe9, 0x36, 0x2d, 0x51, 0xf9, 0x35,
  0x08, 0x1d, 0x0d, 0xd6, 0x02, 0x16, 0xe9, 0xe6, 0xd7, 0x15, 0x2a, 0x21,
  0xf0, 0xe0, 0xdd, 0x3e, 0x40, 0x59, 0xfa, 0xf5, 0x19, 0xd0, 0x32, 0x05,
  0x2a, 0x35, 0xc8, 0x1f, 0x16, 0x3a, 0xf3, 0x4a, 0xf1, 0xa9, 0xba, 0x53,
  0xdd, 0x3c, 0xe6, 0x11, 0x4b, 0xc1, 0x0b, 0x05, 0x1f, 0x34, 0x2d, 0xbd,
  0xf1, 0xf3, 0x1f, 0x4f, 0xe9, 0xdd, 0xba, 0xc5, 0x43, 0x1a, 0x08, 0x0e,
  0x00, 0x05, 0xe4, 0xea, 0x09, 0xdd, 0xd1, 0xd0, 0xec, 0x23, 0x2d, 0xc9,
  0x25, 0x24, 0x20, 0xf8, 0x0c, 0xdc, 0x17, 0xf5, 0x13, 0xfe, 0x05, 0x15,
  0xe7, 0x2d, 0xd3, 0xdc, 0x29, 0xd6, 0xee, 0xe8, 0x13, 0x09, 0xe1, 0xd3,
  0x2d, 0x44, 0x0f, 0xf2, 0x09, 0x09, 0xe9, 0x0a, 0xf2, 0xd1, 0xfd, 0x01,
  0xdb, 0x03, 0xd8, 0xd0, 0xa7, 0x08, 0xce, 0xeb, 0x02, 0xca, 0x31, 0xfb,
  0xf1, 0xdc, 0xdb, 0x07, 0x43, 0x4e, 0xcd, 0xdb, 0xc1, 0xb6, 0xcc, 0xb0,
  0x0f, 0xd9, 0xd2, 0xc4, 0x1e, 0xf5, 0x29, 0x3a, 0xe5, 0x3b, 0x16, 0x02,
  0x12, 0xf4, 0xdc, 0x33, 0xbf, 0x23, 0xfc, 0x24, 0x1a, 0xf7, 0xec, 0x17,
  0x3f, 0x42, 0x4b, 0xf0, 0xe6, 0xef, 0xf7, 0x11, 0x19, 0xee, 0x33, 0x14,
  0x16, 0x19, 0x28, 0x06, 0xfb, 0xd7, 0x33, 0x0d, 0xf0, 0x0c, 0x36, 0x3f,
  0xe3, 0xe6, 0xf4, 0xe6, 0x26, 0xc4, 0xc4, 0x45, 0xf7, 0x19, 0x04, 0x33,
  0x50, 0x17, 0xfa, 0x03, 0x2a, 0xf2, 0x10, 0xf4, 0x1e, 0x21, 0x3c, 0x29,
  0x3b, 0x3d, 0x29, 0xf0, 0xb7, 0xfa, 0x24, 0x29, 0x2d, 0xbf, 0x07, 0x45,
  0x21, 0x4a, 0xd0, 0x25, 0xe7, 0x3e, 0xf1, 0x41, 0x59, 0x39, 0xdc, 0x08,
  0x14, 0x1e, 0xff, 0xd5, 0x05, 0xf8, 0x27, 0x26, 0x36, 0x45, 0xe9, 0xe2,
  0xf6, 0x41, 0x04, 0xfb, 0xbd, 0x1d, 0xa6, 0xeb, 0x08, 0x10, 0xb7, 0x18,
  0xe2, 0xfa, 0xf7, 0xaa, 0x55, 0x11, 0xe5, 0x47, 0x1c, 0x1f, 0x0f, 0xd6,
  0xf9, 0x0c, 0x26, 0xe0, 0xf9, 0xff, 0x45, 0xc3, 0xf9, 0xd7, 0x4a, 0x0a,
  0xcb, 0xfe, 0xce, 0xdb, 0x00, 0x1f, 0xf5, 0x00, 0xdb, 0x3d, 0xc4, 0xe2,
  0x46, 0xb0, 0xfd, 0x1d, 0x09, 0x33, 0x2a, 0x43, 0xaf, 0x34, 0x0a, 0x1e,
  0x02, 0x05, 0xd4, 0x11, 0x0c, 0xd5, 0xe5, 0xeb, 0x47, 0x02, 0xee, 0x1d,
  0x2a, 0xfe, 0xe4, 0x17, 0xda, 0x47, 0xed, 0x1f, 0xe6, 0xf2, 0xf2, 0x0c,
  0xef, 0xfb, 0xf6, 0x4a, 0xfe, 0xd4, 0x1f, 0x1b, 0xea, 0xc9, 0x04, 0xe5,
  0xf4, 0x03, 0xf5, 0xcc, 0xca, 0xc7, 0xf6, 0x01, 0xbb, 0xf4, 0x0a, 0xed,
  0xe4, 0xb5, 0xe6, 0x12, 0x20, 0x0f, 0xc8, 0x0d, 0x06, 0xd4, 0x16, 0x1b,
  0x26, 0x03, 0xee, 0x07, 0xb7, 0xcf, 0xde, 0x51, 0xc0, 0xea, 0xf6, 0xe5,
  0xd7, 0x29, 0xdb, 0x1c, 0xe8, 0x1a, 0x55, 0x3d, 0x26, 0x20, 0xfd, 0xfe,
  0x05, 0x40, 0x1d, 0xfb, 0xfc, 0xb4, 0x3d, 0xc1, 0x04, 0xc2, 0x0d, 0x24,
  0x23, 0xfc, 0xc6, 0x35, 0x06, 0xc2, 0x1c, 0x0c, 0x58, 0xcf, 0x26, 0x20,
  0xf0, 0xfb, 0xe7, 0x20, 0xe6, 0x15, 0xf8, 0x18, 0xec, 0x5c, 0xb2, 0xe2,
  0xe5, 0x10, 0x15, 0x05, 0xfb, 0x28, 0x33, 0xe5, 0x95, 0x1e, 0xbe, 0xe8,
  0x4b, 0x0d, 0xf0, 0x1c, 0x11, 0x41, 0xd8, 0xf6, 0xd8, 0x2b, 0x26, 0xfa,
  0x0d, 0xda, 0x53, 0x1f, 0xff, 0xbd, 0x2d, 0x02, 0x41, 0xb2, 0x00, 0xc6,
  0x25, 0xa8, 0xdc, 0xcf, 0xe3, 0xed, 0x41, 0x10, 0x18, 0xde, 0x00, 0xf2,
  0xf2, 0xeb, 0xcc, 0x04, 0x2b, 0xf7, 0xd7, 0x20, 0x2d, 0xe6, 0x09, 0x02,
  0x1a, 0xb7, 0x06, 0x42, 0x37, 0x23, 0xdb, 0xf0, 0x21, 0x03, 0xe3, 0xe5,
  0xf7, 0xdc, 0xe4, 0xa9, 0x3d, 0x05, 0x0d, 0xf8, 0xfb, 0xf1, 0xf1, 0x13,
  0x28, 0xf6, 0x19, 0x14, 0xd7, 0xd1, 0x07, 0xe9, 0x49, 0xc6, 0xd8, 0x1f,
  0xc6, 0x13, 0xfb, 0x18, 0x33, 0xeb, 0xef, 0xde, 0x32, 0x2c, 0x3e, 0x1e,
  0x03, 0x35, 0xe8, 0x4d, 0x20, 0x5a, 0xf3, 0x1c, 0x3c, 0x0f, 0x12, 0xdd,
  0x40, 0x55, 0x0b, 0x41, 0x33, 0xcf, 0xd5, 0x1e, 0x0f, 0xd7, 0x35, 0xe9,
  0x3c, 0x00, 0x26, 0x18, 0xda, 0x35, 0x00, 0xe4, 0xbb, 0x02, 0x2f, 0xae,
  0x26, 0xdb, 0x42, 0x3d, 0xca, 0x0d, 0xe0, 0x8e, 0x2e, 0xe9, 0x1b, 0x4f,
  0x04, 0x42, 0xd8, 0xd0, 0x4f, 0xfc, 0xe1, 0xef, 0xfe, 0xe2, 0x25, 0xf2,
  0xf9, 0xce, 0x3a, 0x1a, 0x2e, 0xf4, 0xce, 0xe2, 0xe3, 0x1e, 0xdb, 0x1d,
  0xea, 0xe4, 0x06, 0xea, 0xc8, 0xdf, 0xc2, 0x32, 0xd2, 0xc7, 0xc6, 0xe9,
  0xf4, 0xd1, 0x14, 0x44, 0xdb, 0x22, 0xf1, 0xe7, 0xa9, 0x22, 0xf1, 0xef,
  0x14, 0x09, 0xe9, 0x18, 0xdf, 0x29, 0xed, 0xf0, 0x1f, 0x20, 0xd2, 0x2c,
  0x31, 0xdb, 0x37, 0x0e, 0x12, 0x08, 0xb3, 0xe8, 0xd9, 0x07, 0xf4, 0x36,
  0x16, 0xe7, 0xee, 0x5a, 0xd1, 0x2e, 0x18, 0x1c, 0x26, 0x0a, 0xe7, 0x11,
  0x59, 0xd6, 0x2f, 0x3e, 0xde, 0xc4, 0xfe, 0x38, 0x23, 0x19, 0xeb, 0xde,
  0x0d, 0x21, 0x27, 0xbe, 0xa6, 0xfa, 0x11, 0xc4, 0x18, 0x41, 0x0d, 0xfc,
  0xab, 0xe6, 0xd0, 0xf1, 0x44, 0xde, 0x06, 0x27, 0xfc, 0x20, 0x05, 0x03,
  0xd6, 0x2e, 0xb7, 0x2b, 0xef, 0xee, 0xeb, 0xef, 0x43, 0xdb, 0x07, 0xd7,
  0xea, 0xd9, 0xc1, 0x32, 0xdf, 0xdd, 0x0d, 0x0b, 0xe2, 0x39, 0x0e, 0xf8,
  0xfb, 0xd4, 0x0e, 0x46, 0x38, 0x1c, 0xca, 0x0c, 0x2a, 0x37, 0xec, 0xe6,
  0xd9, 0x1a, 0xc8, 0xfc, 0xe2, 0xfa, 0x1c, 0x17, 0xe2, 0x1e, 0x12, 0xf8,
  0xe2, 0x0f, 0xad, 0x18, 0x19, 0x2e, 0xfd, 0x11, 0xf0, 0x4b, 0x08, 0x1f,
  0xde, 0x1e, 0x0e, 0xfb, 0x26, 0xd6, 0x1e, 0x28, 0x26, 0x0b, 0x15, 0x19,
  0x3a, 0x3b, 0xe3, 0x27, 0xea, 0x17, 0xa8, 0x35, 0xd4, 0xe3, 0xc7, 0xe0,
  0xd8, 0x34, 0x62, 0x3c, 0x2e, 0x24, 0xe4, 0xbe, 0xf2, 0x20, 0xeb, 0x26,
  0x9e, 0xc4, 0x28, 0x14, 0xf0, 0xfd, 0xc0, 0x1d, 0xf5, 0xf0, 0x13, 0xca,
  0x30, 0x14, 0x17, 0x27, 0x0c, 0xc0, 0xd7, 0x12, 0xdd, 0xfb, 0x46, 0x3e,
  0xe7, 0x5f, 0x23, 0xc1, 0xda, 0x1a, 0xd9, 0x44, 0x10, 0xcd, 0xdd, 0xd9,
  0x00, 0x24, 0x37, 0xe5, 0xff, 0xf1, 0x21, 0x3f, 0xf8, 0x55, 0x49, 0x3e,
  0x24, 0xcb, 0x11, 0xfa, 0xa9, 0x03, 0xfd, 0x3d, 0x07, 0x1f, 0x3e, 0x19,
  0x51, 0xc8, 0x1d, 0x14, 0x11, 0xf7, 0x15, 0xfe, 0xff, 0xf6, 0xfd, 0x02,
  0x4e, 0xf6, 0xd7, 0x12, 0xd9, 0xea, 0xe9, 0x0f, 0x21, 0x0f, 0x35, 0x32,
  0x4c, 0xdd, 0x5c, 0xc9, 0xf6, 0x14, 0xd0, 0x0c, 0xf4, 0xfb, 0xda, 0x4e,
  0x4b, 0x9b, 0x21, 0xf3, 0x1e, 0x11, 0x0e, 0x22, 0x12, 0x08, 0x01, 0x29,
  0xdf, 0xf9, 0xdf, 0xc3, 0xd3, 0xdf, 0x21, 0xe8, 0xda, 0x2c, 0x20, 0xf2,
  0xc7, 0xbb, 0xb4, 0x14, 0xe7, 0x07, 0xb2, 0x1d, 0x36, 0x11, 0xf1, 0xfa,
  0x0b, 0x1c, 0xde, 0x2f, 0x3a, 0xfa, 0xf4, 0x11, 0x0d, 0x2d, 0x24, 0xc0,
  0xd3, 0x40, 0x11, 0xc1, 0x2a, 0x2c, 0xaa, 0x0e, 0xd1, 0xfd, 0xc3, 0xf9,
  0xb9, 0x0f, 0x3d, 0xcd, 0xd0, 0xea, 0x44, 0x53, 0x3a, 0xfa, 0x0c, 0xc3,
  0x11, 0xea, 0x3f, 0xf1, 0xf0, 0xec, 0xc5, 0x01, 0xe4, 0xad, 0x4b, 0xa6,
  0x0e, 0x08, 0xfd, 0xd1, 0xf3, 0xf6, 0xad, 0x48, 0xf6, 0x1f, 0x33, 0xf4,
  0xed, 0x0d, 0xfa, 0xf2, 0x3a, 0x3a, 0xb7, 0x2c, 0x0c, 0x57, 0x44, 0xe4,
  0xed, 0x19, 0xf7, 0x3d, 0x4c, 0xef, 0x3a, 0x26, 0xdf, 0x1d, 0xce, 0x3a,
  0x05, 0xfe, 0xd2, 0xe4, 0x22, 0x2f, 0xab, 0xed, 0xfa, 0xf3, 0x29, 0xc7,
  0xc2, 0x21, 0xfa, 0x06, 0x04, 0x00, 0x9c, 0xdb, 0xe0, 0xe3, 0xd9, 0x18,
  0x21, 0xc7, 0x0b, 0x5c, 0xf3, 0xc7, 0x09, 0x19, 0x5b, 0x29, 0x07, 0x01,
  0x0a, 0xc2, 0xf3, 0xfd, 0x19, 0xdc, 0x07, 0xc7, 0x50, 0xcc, 0x07, 0xc2,
  0x17, 0xde, 0x36, 0x27, 0x06, 0x40, 0x02, 0x0c, 0xc7, 0xe9, 0xcc, 0x3f,
  0xb3, 0x4e, 0x0a, 0x19, 0x12, 0xd3, 0xd4, 0x06, 0x22, 0xf4, 0xd2, 0x0e,
  0x0b, 0xd1, 0xf6, 0xe6, 0x45, 0x0e, 0xc5, 0x29, 0xe1, 0xe4, 0x45, 0xdb,
  0xf6, 0xca, 0x13, 0xf1, 0x14, 0xf3, 0x1c, 0xdd, 0x11, 0x02, 0xb7, 0x24,
  0x01, 0x2e, 0xfe, 0xbd, 0x1d, 0xd0, 0x16, 0xce, 0x18, 0xca, 0x0a, 0xfe,
  0xf5, 0x19, 0x5b, 0xc4, 0x04, 0xe9, 0xd4, 0xec, 0xfc, 0x3b, 0xe3, 0x33,
  0x2c, 0x16, 0xdc, 0x0b, 0xc9, 0xc8, 0xce, 0xf3, 0xfc, 0xcd, 0x25, 0xf3,
  0xfc, 0xfa, 0x39, 0xe0, 0x2a, 0x58, 0xf5, 0x31, 0xf6, 0xce, 0x0c, 0x4c,
  0x11, 0x1c, 0x2b, 0x21, 0x0f, 0xab, 0xeb, 0x30, 0x28, 0xd9, 0x25, 0x1f,
  0xf6, 0x0c, 0xfa, 0xcd, 0xc0, 0x3f, 0x06, 0xeb, 0xc8, 0xd7, 0x34, 0x1d,
  0x42, 0xd9, 0xc7, 0xea, 0x40, 0xe5, 0xb8, 0xec, 0xef, 0xf4, 0xe4, 0xd9,
  0x3d, 0x29, 0xcd, 0xff, 0x23, 0x2f, 0x00, 0xee, 0xde, 0x1e, 0xe6, 0xdf,
  0x43, 0xed, 0x0e, 0xc1, 0x23, 0xf8, 0xc8, 0xe4, 0xe9, 0xe7, 0xf1, 0x27,
  0xec, 0x30, 0x15, 0x28, 0x1c, 0xe6, 0x21, 0xe1, 0x50, 0xda, 0x0a, 0x11,
  0xdb, 0xcc, 0x39, 0xe8, 0xe5, 0xf4, 0x20, 0x49, 0xda, 0x18, 0x27, 0xd3,
  0x2f, 0xbf, 0x45, 0xeb, 0x15, 0xe3, 0xf7, 0xac, 0x3e, 0x2a, 0x08, 0x0b,
  0xcc, 0x00, 0xcc, 0x21, 0x22, 0x11, 0xe1, 0x0b, 0x16, 0xef, 0xc8, 0x5b,
  0xf2, 0x0d, 0xeb, 0xdc, 0x0e, 0xd7, 0xfc, 0x21, 0x1a, 0x12, 0xc0, 0xdb,
  0xe3, 0xeb, 0x0e, 0xc1, 0xdf, 0x52, 0xe5, 0xfd, 0x2b, 0x19, 0x14, 0x09,
  0xc8, 0xd7, 0x15, 0x26, 0xe2, 0xd8, 0xe7, 0xbf, 0x1c, 0x49, 0x35, 0x41,
  0xe5, 0xe1, 0x66, 0xde, 0x0e, 0x05, 0xe5, 0xf3, 0x1b, 0x22, 0xe1, 0x34,
  0xc7, 0xac, 0xad, 0xe1, 0x50, 0xd5, 0xf0, 0xb7, 0xff, 0x24, 0xd4, 0x10,
  0xeb, 0x17, 0xb6, 0x24, 0x4c, 0x21, 0x11, 0x0c, 0xd8, 0x0f, 0xbe, 0xce,
  0x26, 0x0e, 0x32, 0x14, 0x07, 0x07, 0x3e, 0xaf, 0xa6, 0x02, 0x2d, 0x39,
  0x27, 0x00, 0xfb, 0xea, 0xd2, 0xf1, 0xd3, 0x0e, 0xea, 0xe5, 0xe2, 0xd1,
  0xe7, 0xff, 0x53, 0x39, 0x03, 0x18, 0xe5, 0xfb, 0xeb, 0x28, 0x20, 0x48,
  0xf3, 0xeb, 0x2c, 0xd5, 0x04, 0xf7, 0x4d, 0xee, 0x18, 0x43, 0xc5, 0x2b,
  0x01, 0xeb, 0xd9, 0x0c, 0x3f, 0xf5, 0x26, 0xf4, 0xfc, 0x0e, 0xfc, 0xbe,
  0x22, 0x1a, 0x69, 0x38, 0x26, 0x05, 0x1a, 0xeb, 0x2e, 0xe2, 0xd6, 0xf5,
  0xed, 0x4f, 0x55, 0xde, 0xf0, 0xe4, 0xe1, 0x13, 0xe5, 0xc7, 0xeb, 0xf9,
  0xf3, 0xb7, 0x07, 0xbe, 0xf6, 0xe4, 0xea, 0x11, 0x43, 0x08, 0xc6, 0xf1,
  0x1d, 0x2d, 0xe6, 0x33, 0x17, 0x08, 0x0a, 0xd0, 0x23, 0xfb, 0x32, 0xee,
  0x5b, 0xcd, 0xdb, 0x55, 0x35, 0x0c, 0x5b, 0x19, 0x2a, 0xfe, 0x1d, 0xeb,
  0xb4, 0xe5, 0x05, 0xe6, 0xe7, 0x16, 0x1a, 0xe2, 0x1c, 0x20, 0x0e, 0x18,
  0xfb, 0xdb, 0x31, 0x08, 0xe5, 0x26, 0x3c, 0xfd, 0xef, 0x2e, 0x0c, 0x30,
  0x13, 0x2c, 0xe8, 0xd1, 0xf9, 0xe5, 0xfb, 0x2b, 0x19, 0xe3, 0x19, 0x01,
  0xb2, 0x0f, 0xf9, 0x2a, 0xfc, 0x1d, 0x26, 0x13, 0xd1, 0xfc, 0xee, 0xf2,
  0xec, 0x13, 0x24, 0x44, 0x24, 0xb2, 0x0f, 0xda, 0x23, 0x04, 0x1e, 0xe0,
  0xe6, 0x01, 0xf7, 0xe1, 0x0c, 0x33, 0x14, 0x11, 0xf6, 0xcc, 0xf9, 0x49,
  0xd5, 0xb3, 0x24, 0xfd, 0xf2, 0xcc, 0x3e, 0xe3, 0x13, 0x00, 0xba, 0x48,
  0xf7, 0x13, 0x5d, 0x05, 0x30, 0xf9, 0xd6, 0xe9, 0xd4, 0x23, 0xc6, 0x22,
  0xef, 0x22, 0x37, 0x21, 0x1f, 0xe9, 0x0f, 0xff, 0x24, 0x31, 0x24, 0x05,
  0x20, 0xf1, 0xec, 0x21, 0x14, 0x0a, 0x1a, 0x3b, 0x9c, 0xb1, 0x06, 0xff,
  0x0f, 0xa4, 0x17, 0xbf, 0x14, 0xe9, 0xb2, 0x38, 0xfc, 0xd9, 0x04, 0xd7,
  0xd7, 0x10, 0xed, 0xce, 0x2d, 0xf7, 0x22, 0xe9, 0xec, 0x52, 0xeb, 0x06,
  0x1a, 0xac, 0x04, 0x2a, 0xd4, 0x2d, 0x35, 0xdd, 0x28, 0x1c, 0x0a, 0x24,
  0xf3, 0x0a, 0x0c, 0xd3, 0xe5, 0xc0, 0x16, 0x2b, 0x1b, 0x10, 0x0a, 0xb7,
  0xca, 0xf2, 0x19, 0x11, 0x39, 0xf5, 0xf7, 0x16, 0xca, 0xf5, 0xaf, 0x13,
  0xdd, 0x28, 0x17, 0x0b, 0xb8, 0xe6, 0x49, 0x0b, 0x23, 0x5b, 0x14, 0xf7,
  0x06, 0x1f, 0x04, 0xc1, 0xfa, 0x1a, 0x2a, 0xeb, 0x10, 0xf2, 0xf0, 0x02,
  0xfc, 0xf8, 0x28, 0xeb, 0xd9, 0xcd, 0xd6, 0x0f, 0x04, 0xf7, 0xcd, 0x17,
  0x22, 0xd7, 0x0f, 0xd5, 0xd1, 0xf6, 0x1a, 0x28, 0xfc, 0xde, 0xfa, 0xd2,
  0xfe, 0xd7, 0xd5, 0x2f, 0x02, 0x4b, 0xe8, 0x17, 0x4c, 0x02, 0xf5, 0xd4,
  0xfc, 0x1d, 0x3e, 0x34, 0xe3, 0x57, 0x39, 0x1f, 0xfe, 0xd7, 0x2e, 0x25,
  0xdb, 0x3c, 0xd5, 0x15, 0xdc, 0xe1, 0xe8, 0x37, 0x0a, 0x02, 0x1f, 0xe3,
  0xe6, 0x1c, 0x25, 0xfa, 0xf6, 0x18, 0x0b, 0x1a, 0x22, 0x38, 0x0e, 0x40,
  0xe9, 0x24, 0xf7, 0xf6, 0xdf, 0xf7, 0x29, 0xbd, 0x32, 0xd5, 0x0b, 0x14,
  0xee, 0xeb, 0x54, 0x2d, 0xff, 0xb5, 0x00, 0x38, 0xf6, 0xfe, 0xf3, 0x08,
  0x17, 0x0b, 0xda, 0x1f, 0xff, 0xd3, 0xfa, 0xfc, 0xda, 0x40, 0xc0, 0x10,
  0x0a, 0x1d, 0xb3, 0xd9, 0x16, 0xe6, 0xb6, 0xea, 0x2c, 0x07, 0x22, 0xd0,
  0xcc, 0xfc, 0x37, 0x2a, 0x11, 0x09, 0x31, 0x1c, 0x15, 0x0a, 0x56, 0xf9,
  0x30, 0x3c, 0xb6, 0x19, 0xc7, 0xc9, 0xd0, 0x2d, 0x05, 0x1b, 0xfe, 0xfc,
  0xf5, 0xa8, 0xdc, 0x31, 0xef, 0x10, 0xb7, 0x00, 0x48, 0x03, 0xf2, 0x42,
  0x36, 0xdc, 0xde, 0x13, 0x1e, 0xb9, 0x0b, 0x5c, 0x18, 0xc6, 0xe4, 0x4e,
  0x0f, 0x3c, 0x11, 0x3b, 0xf6, 0x11, 0xe0, 0xb6, 0xcf, 0xd0, 0xe1, 0xf7,
  0xfd, 0x16, 0xd9, 0xdc, 0xf4, 0xfe, 0x29, 0x07, 0xfc, 0xbe, 0xce, 0xea,
  0xd9, 0xd1, 0xf5, 0x3e, 0xf2, 0xef, 0x0e, 0xd2, 0xeb, 0xc0, 0x3f, 0xf5,
  0x15, 0xea, 0xf7, 0xcc, 0x08, 0x41, 0xbf, 0x03, 0xbf, 0xf3, 0x2e, 0x43,
  0x04, 0xf7, 0xf9, 0xcd, 0xf4, 0x4c, 0xd2, 0xd5, 0x16, 0x01, 0x0c, 0xf5,
  0xa4, 0x39, 0x0d, 0x2b, 0xab, 0xe2, 0xaf, 0xe6, 0xcf, 0xe2, 0xe6, 0x01,
  0xeb, 0x0c, 0x39, 0xc9, 0x15, 0x1d, 0x16, 0x40, 0x3c, 0xc0, 0xf9, 0xfc,
  0x0d, 0xf2, 0x02, 0x03, 0xe0, 0xdb, 0x44, 0xfc, 0xf2, 0x12, 0x1a, 0xe1,
  0x06, 0x0e, 0xe0, 0x02, 0x41, 0x08, 0x20, 0x15, 0xec, 0x3f, 0xdd, 0xe8,
  0x06, 0xe3, 0xb6, 0x2d, 0x0d, 0xe8, 0x2c, 0xcd, 0xca, 0xe8, 0xfa, 0xed,
  0xee, 0xdb, 0xdf, 0x03, 0xd1, 0x2d, 0x15, 0x07, 0x43, 0x1f, 0xce, 0xe6,
  0xf1, 0xce, 0xd0, 0xb5, 0xf3, 0xc0, 0xfa, 0xf6, 0xf7, 0x3e, 0x17, 0x04,
  0x1a, 0xeb, 0x17, 0x1e, 0xbc, 0xec, 0xd2, 0xe7, 0xd7, 0x15, 0xce, 0xf4,
  0xd4, 0x1b, 0x0f, 0x04, 0x38, 0x13, 0x16, 0xb9, 0x14, 0xf6, 0x05, 0x12,
  0xf1, 0xfc, 0xbd, 0xbe, 0xfb, 0x01, 0xed, 0x48, 0xff, 0xc5, 0x00, 0x21,
  0x3d, 0x2f, 0x3c, 0x50, 0xc6, 0xa4, 0x50, 0xfa, 0x27, 0xf1, 0xe4, 0xba,
  0xf7, 0x0e, 0x10, 0x15, 0xfe, 0x2c, 0xec, 0xe5, 0xe8, 0xff, 0x4b, 0x09,
  0xbc, 0xe5, 0x16, 0x06, 0x05, 0xcf, 0xee, 0xce, 0x0c, 0x35, 0xd3, 0x4f,
  0xc3, 0xf3, 0xf6, 0x38, 0x03, 0x41, 0x41, 0xdd, 0xe9, 0xf9, 0x1b, 0xce,
  0xc6, 0xe8, 0x08, 0x03, 0xde, 0x17, 0x11, 0x4e, 0x2d, 0xfc, 0xd7, 0xfe,
  0x33, 0x1f, 0x02, 0xb3, 0x27, 0xeb, 0x0b, 0x46, 0xfa, 0xaf, 0x2d, 0xca,
  0xe6, 0xfb, 0xf8, 0xff, 0x0f, 0x34, 0x35, 0x5a, 0xbf, 0x42, 0xcd, 0x07,
  0xfa, 0xc0, 0x21, 0x08, 0xea, 0xb7, 0x1d, 0x0e, 0x0d, 0x2e, 0x45, 0x1d,
  0x17, 0xd7, 0xff, 0xd8, 0x02, 0xec, 0xc5, 0xe3, 0x42, 0x16, 0xe4, 0x25,
  0x2b, 0xd2, 0xa1, 0xed, 0xf7, 0xca, 0x4a, 0xb9, 0x15, 0x15, 0xb0, 0xca,
  0xf5, 0xfa, 0x4f, 0xf1, 0xf6, 0xc3, 0x00, 0xdc, 0x0c, 0xf6, 0x3f, 0xf1,
  0x0f, 0xdb, 0xec, 0xe3, 0xda, 0xef, 0xaf, 0x37, 0xd2, 0x15, 0x2c, 0x40,
  0xab, 0xe1, 0xe4, 0x10, 0xe6, 0xf4, 0xdd, 0xcf, 0xee, 0x00, 0xfd, 0x29,
  0xf5, 0xba, 0xf4, 0x38, 0x29, 0x3d, 0x19, 0x03, 0xe5, 0xf9, 0x39, 0xf5,
  0x17, 0xd7, 0x48, 0x48, 0x27, 0x17, 0xf9, 0x11, 0x0c, 0x15, 0x28, 0x1f,
  0xdc, 0x00, 0xf8, 0xf8, 0xec, 0x27, 0xf7, 0xb8, 0xf4, 0x1e, 0x17, 0x2c,
  0x16, 0x1f, 0x3d, 0xc3, 0xcd, 0xf1, 0xd4, 0xf1, 0x09, 0x25, 0xfc, 0xcd,
  0x50, 0xc0, 0x35, 0x39, 0x17, 0xdd, 0xb4, 0x46, 0x32, 0x03, 0x3c, 0xad,
  0x2f, 0xce, 0x17, 0xca, 0x20, 0x0e, 0x3a, 0x0b, 0xf4, 0xfc, 0xcb, 0xef,
  0xd0, 0xe1, 0x20, 0xf1, 0x01, 0x28, 0xee, 0xf7, 0x17, 0xbb, 0xcb, 0x32,
  0xc8, 0xba, 0x34, 0x14, 0xd5, 0x1a, 0xfc, 0x1f, 0xda, 0x10, 0xfb, 0x01,
  0x19, 0x0c, 0xf7, 0x2e, 0xf6, 0x1f, 0xce, 0xfa, 0xd9, 0xe6, 0xd2, 0xa9,
  0x20, 0xdb, 0xde, 0x0a, 0xe0, 0x12, 0xea, 0x1b, 0xe8, 0xc6, 0xfd, 0x1f,
  0xd8, 0x46, 0xc5, 0xff, 0xd1, 0x00, 0xef, 0xf5, 0x0f, 0xb7, 0xac, 0xd2,
  0x14, 0xe8, 0xf4, 0x39, 0xfd, 0xbb, 0x0f, 0xce, 0x27, 0xcf, 0xb1, 0xdd,
  0x63, 0x19, 0xfe, 0xdb, 0x06, 0x10, 0x0d, 0xef, 0x54, 0x12, 0xe8, 0xf8,
  0x14, 0x23, 0xd6, 0x0d, 0x2b, 0x28, 0xfa, 0x01, 0xf1, 0x3f, 0xbb, 0x15,
  0x2f, 0x2a, 0xd1, 0x02, 0xf2, 0xc1, 0x00, 0x17, 0x2d, 0xbb, 0xe8, 0xbb,
  0x37, 0x23, 0x29, 0x22, 0x11, 0xd1, 0xdc, 0x11, 0xd3, 0xda, 0xf3, 0x05,
  0xf9, 0xfa, 0xd3, 0xe6, 0xd2, 0x0a, 0xf0, 0xef, 0xfc, 0x47, 0xe7, 0xf8,
  0xbc, 0xf6, 0xef, 0xc5, 0x0f, 0xbd, 0xce, 0x08, 0x0b, 0xfc, 0xf7, 0xfc,
  0x05, 0x72, 0x66, 0xf4, 0x1f, 0x11, 0xf8, 0x59, 0x1c, 0x23, 0x51, 0x0f,
  0xfd, 0x3b, 0xd8, 0x2b, 0x1b, 0xdc, 0xee, 0x08, 0x25, 0xdb, 0xfc, 0xfd,
  0xc4, 0x60, 0x0f, 0xc2, 0x3b, 0xce, 0x45, 0x1e, 0x1e, 0xe4, 0x11, 0x11,
  0x3a, 0x1d, 0xca, 0x15, 0x0f, 0xbe, 0x04, 0xdf, 0xca, 0x15, 0x23, 0xf1,
  0xf1, 0xd7, 0x1e, 0xf0, 0xc7, 0x38, 0x48, 0xd3, 0x1c, 0xf0, 0x06, 0xec,
  0xe5, 0x13, 0xd9, 0xef, 0x0f, 0xee, 0x61, 0xf8, 0xfd, 0xff, 0x3d, 0x19,
  0x2e, 0xbc, 0x3d, 0xe1, 0xd0, 0x20, 0x0f, 0xf1, 0xd2, 0x33, 0x17, 0xf8,
  0x28, 0x3d, 0xab, 0xe6, 0xda, 0xe5, 0x37, 0x0e, 0x0b, 0xf1, 0x09, 0xe8,
  0xcc, 0xcf, 0x0e, 0xc8, 0xcb, 0x1d, 0xcb, 0x25, 0xed, 0x50, 0xf1, 0x46,
  0x2b, 0xea, 0x39, 0x49, 0xf3, 0x11, 0x2a, 0xcd, 0x5f, 0xf6, 0x1d, 0xb7,
  0xd2, 0x0f, 0x4b, 0x3a, 0xe7, 0x0e, 0xf8, 0x0a, 0x18, 0x09, 0x0c, 0xef,
  0xbb, 0x1e, 0xb0, 0xe6, 0x4b, 0x27, 0xb0, 0xca, 0x09, 0xed, 0x13, 0xf1,
  0xa5, 0x21, 0xe7, 0xd5, 0x23, 0xe6, 0xd5, 0xdf, 0xb4, 0xe8, 0xf9, 0x50,
  0xb1, 0xe2, 0x10, 0x39, 0xa7, 0xde, 0xf5, 0x00, 0x06, 0xeb, 0xd6, 0x3f,
  0x48, 0xde, 0xf8, 0xde, 0xf7, 0x00, 0xf6, 0x21, 0x22, 0xd9, 0xf6, 0x44,
  0x01, 0xe5, 0x1d, 0xfa, 0xb5, 0x41, 0x22, 0x0e, 0xf2, 0x1f, 0x34, 0x2e,
  0x0e, 0x11, 0x20, 0xe0, 0xe6, 0x1f, 0x46, 0x20, 0x20, 0xe6, 0x09, 0x14,
  0x68, 0x22, 0x6f, 0xae, 0xfe, 0xe2, 0xde, 0xb6, 0x22, 0xbc, 0xdd, 0xf0,
  0xf4, 0xef, 0x2f, 0x05, 0x1d, 0x38, 0x55, 0x0b, 0x30, 0xf1, 0xec, 0x42,
  0xee, 0x0c, 0xac, 0xfd, 0xc6, 0x12, 0xa1, 0x3e, 0x17, 0x3f, 0xb2, 0x2a,
  0x0c, 0x2c, 0xde, 0x29, 0xd3, 0xd2, 0xfd, 0xf1, 0x1d, 0xc5, 0x22, 0xe6,
  0xf0, 0x03, 0xe8, 0xf6, 0xfa, 0xd4, 0x15, 0x24, 0xfd, 0x07, 0xfc, 0x31,
  0xdd, 0x0d, 0x1b, 0xfd, 0xf1, 0x50, 0xdc, 0xd6, 0xf3, 0xf0, 0x1f, 0x07,
  0xb7, 0x3d, 0x42, 0xe0, 0xd9, 0x17, 0xf3, 0x3c, 0x17, 0xe3, 0xe8, 0x17,
  0xcb, 0x0a, 0x41, 0x32, 0x36, 0xb6, 0x05, 0x06, 0x05, 0xd2, 0xf1, 0xcb,
  0xbd, 0x14, 0xf3, 0x03, 0x1d, 0x25, 0xf9, 0x50, 0x07, 0x0d, 0xfe, 0xe7,
  0xbf, 0x49, 0xec, 0xe5, 0x13, 0x09, 0x02, 0x3f, 0x26, 0x09, 0xd1, 0x29,
  0x9a, 0x44, 0x17, 0x0f, 0x0e, 0x2b, 0x06, 0x2b, 0xfe, 0x04, 0x0a, 0x4f,
  0xd8, 0xed, 0x15, 0x31, 0x27, 0xd4, 0x02, 0x1b, 0x01, 0x08, 0x1f, 0xc4,
  0x4b, 0xd6, 0x11, 0xea, 0xe5, 0x17, 0x25, 0xfc, 0x28, 0x06, 0x19, 0x0e,
  0xd7, 0xdc, 0x0e, 0xed, 0xfc, 0xe2, 0x0b, 0x7f, 0x4c, 0xeb, 0xd3, 0xea,
  0xfd, 0x32, 0x01, 0x4b, 0x20, 0xf4, 0xf9, 0x71, 0x49, 0x3a, 0x04, 0xff,
  0x11, 0x19, 0x0e, 0x4c, 0x1a, 0x12, 0x0d, 0xf4, 0xfa, 0xd8, 0xba, 0xeb,
  0x09, 0xc9, 0x0e, 0xfd, 0xfb, 0xd8, 0x39, 0x2d, 0xf6, 0x2a, 0x1d, 0xeb,
  0x1e, 0x15, 0xb9, 0xff, 0x36, 0xfe, 0xef, 0xb6, 0x51, 0x04, 0x2a, 0xeb,
  0x13, 0x2f, 0xfa, 0xe2, 0x3a, 0xd6, 0x20, 0xe3, 0xb6, 0x06, 0xfb, 0xc8,
  0x19, 0xd9, 0x04, 0x0e, 0xfb, 0x01, 0x29, 0xdf, 0x26, 0xf9, 0xc0, 0x19,
  0xf8, 0xcd, 0xd3, 0xbf, 0x10, 0xf0, 0x25, 0x36, 0x10, 0xd3, 0xc5, 0x04,
  0xf3, 0x09, 0xca, 0x09, 0xe4, 0x13, 0xac, 0xdc, 0x2e, 0x1d, 0xef, 0x5b,
  0xee, 0xd7, 0xd3, 0xaa, 0xf8, 0x2c, 0x06, 0x25, 0x08, 0xcf, 0xee, 0xde,
  0xc7, 0x04, 0xb9, 0xcb, 0x09, 0xe8, 0xcc, 0xe6, 0xc4, 0xea, 0xee, 0x0a,
  0x41, 0x03, 0x15, 0x19, 0x35, 0xd6, 0xd4, 0x1d, 0xec, 0xeb, 0x0c, 0xf4,
  0x1a, 0x00, 0x42, 0xe4, 0x1c, 0x13, 0xf8, 0x2e, 0x23, 0x03, 0x08, 0x19,
  0x07, 0xa0, 0x0c, 0x13, 0xae, 0x14, 0xe4, 0x15, 0xe0, 0xe3, 0xf1, 0xf8,
  0x26, 0x13, 0x1e, 0x5b, 0x20, 0xdc, 0x1b, 0xb1, 0xe1, 0x09, 0xf0, 0xd1,
  0xd7, 0x14, 0xb6, 0x56, 0x2a, 0xf9, 0x4b, 0xcc, 0x0d, 0xc9, 0x1c, 0xdc,
  0xc4, 0x45, 0x1e, 0xf4, 0xf9, 0xce, 0xe7, 0x04, 0xc7, 0x46, 0xfe, 0x0f,
  0x26, 0x20, 0xcd, 0xe6, 0xf9, 0xed, 0xed, 0x1a, 0x2a, 0x08, 0xfa, 0x34,
  0x18, 0x42, 0x0b, 0xf4, 0x47, 0x06, 0x1d, 0x06, 0xf8, 0x0d, 0xdb, 0x19,
  0x22, 0xb6, 0x4a, 0x0c, 0x38, 0x42, 0xfb, 0xec, 0xa3, 0xae, 0xd2, 0xea,
  0xd8, 0xe3, 0xff, 0xfc, 0x23, 0x12, 0x50, 0x3c, 0xda, 0xb7, 0xcd, 0x0e,
  0x30, 0xfa, 0xe3, 0xc7, 0xf0, 0x04, 0xda, 0xf8, 0xb7, 0xd6, 0xf4, 0xf8,
  0xcd, 0x1c, 0x00, 0x23, 0x18, 0xb7, 0xf5, 0x19, 0xd1, 0x1a, 0xfc, 0xf7,
  0xa6, 0x14, 0xfa, 0xfc, 0x2a, 0xbf, 0xfc, 0x03, 0x2e, 0xb9, 0x2f, 0x21,
  0xf8, 0x3a, 0x0f, 0xb4, 0x25, 0x07, 0xe4, 0x28, 0xfb, 0xfb, 0xff, 0xb4,
  0xdc, 0xad, 0xfa, 0x3c, 0x30, 0xd2, 0xe8, 0x15, 0xdc, 0x1e, 0x0f, 0xec,
  0xd9, 0x35, 0x20, 0x51, 0xe8, 0xf1, 0xe9, 0xef, 0xb7, 0xdf, 0xe7, 0xf3,
  0xb6, 0x21, 0xc2, 0xff, 0xee, 0x2b, 0x06, 0x41, 0x2e, 0x38, 0x16, 0x17,
  0x28, 0x3f, 0x17, 0x23, 0x54, 0x2a, 0x20, 0xe6, 0xdf, 0xb2, 0xd0, 0x1f,
  0x25, 0x45, 0x16, 0xd9, 0xeb, 0x0c, 0xfc, 0x2d, 0x43, 0xd9, 0xb2, 0x0d,
  0x22, 0xe7, 0xcc, 0xdd, 0xa4, 0x3b, 0x04, 0x08, 0x1b, 0x1d, 0xd5, 0x14,
  0x1b, 0xeb, 0x12, 0xd3, 0x18, 0xe3, 0xf5, 0xc9, 0xa7, 0xe9, 0xc7, 0x1c,
  0xfc, 0x0d, 0xbf, 0x04, 0x10, 0x22, 0x12, 0x0b, 0x10, 0x05, 0x14, 0x3b,
  0xfc, 0x14, 0x24, 0x39, 0xd8, 0x16, 0xd6, 0x3e, 0xd3, 0x10, 0x1f, 0xe5,
  0x0e, 0x01, 0xd1, 0xf9, 0x30, 0xc5, 0x08, 0xf6, 0x26, 0xf4, 0x13, 0xca,
  0x10, 0x2c, 0x2a, 0xdf, 0x17, 0xe9, 0xc8, 0xdd, 0x56, 0xcd, 0x4b, 0xea,
  0xf7, 0xd3, 0x30, 0x26, 0xd5, 0xf9, 0xc3, 0xe7, 0x11, 0x0a, 0xdc, 0x10,
  0xe8, 0x18, 0xf1, 0xf0, 0x24, 0xd7, 0xcb, 0x0a, 0xbd, 0x02, 0xe8, 0xb3,
  0x16, 0x1c, 0x31, 0xf7, 0x37, 0xd2, 0xc5, 0xf0, 0x11, 0x07, 0x24, 0xf3,
  0x41, 0xdc, 0x14, 0x09, 0x15, 0x08, 0x41, 0xed, 0x26, 0x05, 0x00, 0x06,
  0x32, 0xe4, 0x03, 0xf6, 0xf7, 0xee, 0x25, 0xe6, 0xb8, 0x31, 0xe1, 0xea,
  0xbc, 0xc1, 0xcb, 0x10, 0xef, 0xf8, 0x32, 0xfc, 0xd7, 0x31, 0x1c, 0x0e,
  0xd1, 0x00, 0x02, 0x08, 0x1e, 0xf5, 0x26, 0x11, 0xf3, 0x01, 0x02, 0x36,
  0x0c, 0xcc, 0xcc, 0x10, 0xed, 0xd9, 0x2d, 0xcd, 0x1d, 0xfa, 0x24, 0x1f,
  0xf7, 0x23, 0x14, 0x12, 0x1c, 0x09, 0xec, 0x35, 0x2f, 0xbd, 0x15, 0xdd,
  0x32, 0x10, 0x40, 0xfa, 0x3b, 0x16, 0xfb, 0x0a, 0x30, 0x0c, 0xf3, 0xd9,
  0x0f, 0xe2, 0xfb, 0x11, 0xfe, 0xfd, 0xf2, 0x06, 0x1f, 0x18, 0xfa, 0xe9,
  0xf6, 0x28, 0x02, 0x34, 0xe5, 0x0a, 0xe2, 0x25, 0xe3, 0x5a, 0xe3, 0xe9,
  0xc5, 0x2c, 0xd3, 0xc4, 0xf3, 0xdb, 0xdd, 0xe9, 0x04, 0xc8, 0x09, 0x07,
  0xbb, 0xee, 0x0d, 0x1e, 0xbc, 0xb8, 0x18, 0xec, 0xf6, 0x32, 0xf2, 0xe2,
  0xeb, 0x17, 0x05, 0x52, 0x5e, 0xd3, 0xeb, 0xfa, 0xfa, 0xff, 0x51, 0xe9,
  0xf3, 0xb5, 0x0b, 0x33, 0x18, 0x21, 0xb4, 0x08, 0x1f, 0xed, 0xd5, 0x54,
  0xee, 0x20, 0x11, 0x3d, 0x3a, 0x06, 0xfc, 0x62, 0x12, 0xe8, 0xe4, 0x1d,
  0xe2, 0x11, 0xfb, 0xf5, 0x0b, 0x2a, 0xc5, 0x48, 0x06, 0xdd, 0xe6, 0xf6,
  0x20, 0xe9, 0xd9, 0xf5, 0xf6, 0x0a, 0x0c, 0x2a, 0x45, 0x0d, 0xd1, 0x0b,
  0x8d, 0x03, 0x01, 0x1d, 0x0e, 0xb9, 0xc4, 0x50, 0xe5, 0x4d, 0x12, 0xbf,
  0x12, 0x10, 0x35, 0x56, 0x09, 0xf3, 0xb1, 0x04, 0xc4, 0xea, 0x33, 0xe0,
  0xc0, 0x2b, 0xed, 0x02, 0xbb, 0x0a, 0xec, 0x55, 0x14, 0x0f, 0xfc, 0x12,
  0x08, 0x11, 0xfb, 0x26, 0xe3, 0xe3, 0xea, 0xff, 0x5c, 0xbc, 0x20, 0xda,
  0xdb, 0xf0, 0x01, 0xd8, 0x10, 0xf3, 0xea, 0x13, 0xaa, 0x1c, 0x3f, 0xef,
  0x04, 0xe5, 0xf6, 0xda, 0xef, 0x16, 0x01, 0xfc, 0xbd, 0x1a, 0x3c, 0xf4,
  0xda, 0xfb, 0xad, 0xe9, 0x30, 0xfd, 0x0e, 0x04, 0x44, 0xde, 0x11, 0xe6,
  0x0c, 0x32, 0x22, 0x0b, 0x1c, 0x28, 0xe9, 0xdd, 0xff, 0xde, 0x08, 0xf1,
  0xfb, 0x15, 0xe3, 0xb5, 0xcb, 0xef, 0xe3, 0xdc, 0xea, 0xd7, 0xc7, 0xde,
  0x21, 0x0b, 0x30, 0xb6, 0x06, 0xf9, 0x3a, 0x04, 0x14, 0xd4, 0x08, 0x19,
  0xf6, 0xe4, 0x2f, 0x0c, 0x11, 0xdb, 0xf3, 0x17, 0xfd, 0xc5, 0xcb, 0xc2,
  0x08, 0x0a, 0x04, 0xab, 0xfd, 0x15, 0x07, 0x13, 0xd5, 0xfe, 0xde, 0xe7,
  0xeb, 0x38, 0xd4, 0xd8, 0x34, 0x40, 0x42, 0xcf, 0x08, 0xd7, 0xe3, 0x1b,
  0xe3, 0xee, 0xcf, 0xca, 0xf7, 0xe6, 0x09, 0x12, 0xda, 0xcd, 0xdb, 0x17,
  0x10, 0xf1, 0xe4, 0x59, 0x55, 0x39, 0xd6, 0x30, 0x4f, 0x29, 0xed, 0xc0,
  0xb1, 0x9a, 0xe5, 0x3d, 0xfa, 0xe8, 0x48, 0xd2, 0xe5, 0x11, 0x1a, 0x10,
  0x11, 0xfb, 0x1b, 0xe6, 0xd8, 0x13, 0xdf, 0xdb, 0xe3, 0xfc, 0x2c, 0x03,
  0xcd, 0x26, 0x32, 0xd9, 0x37, 0xfa, 0x00, 0x12, 0xaf, 0x43, 0xef, 0xff,
  0xc2, 0xfd, 0x05, 0x1d, 0xdc, 0xe3, 0xbe, 0x32, 0x43, 0x0b, 0x54, 0xf6,
  0xea, 0xca, 0x0e, 0xdb, 0x05, 0x0d, 0x0a, 0xfb, 0xfc, 0x0b, 0x17, 0x31,
  0x0c, 0xd3, 0x00, 0xfa, 0xf9, 0x00, 0xda, 0x37, 0x11, 0xdc, 0xc4, 0x0d,
  0x64, 0x37, 0xf6, 0xfe, 0x3a, 0x29, 0xd3, 0x15, 0xfd, 0x2b, 0x21, 0xf7,
  0xce, 0x31, 0xf8, 0x2f, 0x0e, 0x01, 0x27, 0xf6, 0x3d, 0x0b, 0x02, 0x44,
  0xd1, 0xde, 0x19, 0xe2, 0x06, 0x3d, 0x0a, 0xdf, 0x0f, 0x22, 0xe5, 0xed,
  0x16, 0x20, 0x1a, 0xd4, 0xcb, 0xd0, 0xd3, 0x23, 0xf4, 0x22, 0x19, 0xb9,
  0xfd, 0xc6, 0x19, 0xfa, 0xc1, 0x01, 0x46, 0xf6, 0x27, 0xfc, 0xe5, 0x0b,
  0xfc, 0xf3, 0xf8, 0x02, 0xb2, 0xc2, 0xdf, 0x25, 0x0c, 0x02, 0x52, 0xea,
  0xad, 0x3e, 0x06, 0xf8, 0xe6, 0xf2, 0x07, 0x37, 0x26, 0x19, 0x38, 0x26,
  0xe0, 0xfc, 0xfb, 0x0f, 0xee, 0x07, 0x21, 0x08, 0x40, 0x2d, 0x04, 0xe4,
  0xfc, 0x18, 0x3f, 0x23, 0x12, 0x3b, 0xc4, 0xe0, 0x13, 0x07, 0xcf, 0x0f,
  0xef, 0x24, 0x2c, 0x46, 0x31, 0x2c, 0xdb, 0x39, 0xbd, 0x03, 0x24, 0x0e,
  0xf0, 0x28, 0x1c, 0xcf, 0x44, 0x2f, 0xdc, 0x32, 0x0f, 0xd6, 0xea, 0x0e,
  0xd6, 0x34, 0x33, 0xd6, 0x03, 0xb7, 0xc2, 0x38, 0xfd, 0xef, 0xc7, 0x01,
  0xda, 0xe5, 0x1e, 0x59, 0xf0, 0x04, 0xc7, 0x02, 0xb6, 0xe9, 0xea, 0x38,
  0xf0, 0x36, 0x09, 0x29, 0xf9, 0xbb, 0xd4, 0xf9, 0xbe, 0x05, 0xd2, 0x1c,
  0x21, 0x29, 0x2a, 0x0d, 0xdd, 0xec, 0x0d, 0x42, 0xf6, 0x24, 0xe7, 0x5a,
  0xfc, 0x34, 0x15, 0xd0, 0xf3, 0x1f, 0xd9, 0x67, 0xcc, 0xfd, 0x27, 0xe9,
  0xcd, 0x45, 0x35, 0x10, 0x09, 0x31, 0x40, 0x1c, 0x11, 0xe8, 0x10, 0xd3,
  0x04, 0x02, 0xfe, 0x39, 0x12, 0xfb, 0xad, 0xf2, 0x18, 0xbc, 0x13, 0xf4,
  0x0b, 0x1a, 0x46, 0x4d, 0xf0, 0xc5, 0xf5, 0xea, 0xca, 0x04, 0x08, 0x0d,
  0xde, 0x05, 0x9d, 0x2a, 0xfa, 0x09, 0x2b, 0x36, 0xf1, 0xd3, 0x09, 0x38,
  0xd8, 0xf4, 0x2d, 0x0e, 0xd9, 0x44, 0xe4, 0xb6, 0x04, 0xa9, 0xd5, 0xea,
  0xd2, 0x37, 0x35, 0xdd, 0xa7, 0x30, 0xe4, 0xff, 0x03, 0xf2, 0xe8, 0x04,
  0xf9, 0xf8, 0x36, 0xff, 0xdd, 0x2d, 0x03, 0xfa, 0x23, 0x31, 0x00, 0x02,
  0xef, 0x02, 0x47, 0x02, 0xe0, 0x12, 0xc4, 0xf6, 0x33, 0xc4, 0xf7, 0xb3,
  0xff, 0xf1, 0x3c, 0xd6, 0x02, 0xc6, 0xbc, 0xf4, 0x18, 0xf2, 0x20, 0xa5,
  0x13, 0xe6, 0xee, 0xbb, 0x49, 0x36, 0xf7, 0xe6, 0xff, 0xf8, 0x09, 0x36,
  0xcf, 0x05, 0xe5, 0x01, 0x51, 0x13, 0x20, 0xdd, 0xdf, 0xe2, 0xc0, 0x3b,
  0x1a, 0x19, 0xbe, 0xcd, 0xdb, 0x0c, 0xc7, 0x18, 0xfd, 0x11, 0xee, 0x22,
  0x8f, 0x3a, 0x03, 0xf6, 0x3e, 0xe0, 0xd8, 0xfd, 0xf5, 0xe3, 0x00, 0xc3,
  0xdd, 0x49, 0x6c, 0x0e, 0x08, 0x01, 0xc8, 0xd7, 0xe6, 0xfd, 0xfd, 0xfd,
  0x0e, 0x20, 0x11, 0x0b, 0xd2, 0x25, 0x0e, 0x0e, 0x2d, 0x11, 0x10, 0x3a,
  0xe5, 0x20, 0x41, 0x13, 0xc5, 0xdf, 0x05, 0x27, 0x4e, 0x23, 0xb6, 0xe0,
  0xb8, 0xb8, 0xf9, 0xef, 0xe9, 0x10, 0xfd, 0x19, 0x2a, 0x0c, 0x4d, 0xd7,
  0xe7, 0xfe, 0xee, 0xe7, 0xfa, 0xe8, 0xd9, 0xda, 0xf2, 0x02, 0xff, 0x0a,
  0x49, 0xe9, 0x17, 0xac, 0x3a, 0xd3, 0xd5, 0x08, 0xe4, 0xd6, 0x30, 0xfa,
  0x17, 0x14, 0x2d, 0xeb, 0xd5, 0xbf, 0xdc, 0xf5, 0x06, 0xf3, 0xe0, 0x3c,
  0x16, 0xca, 0x0d, 0xf3, 0x5b, 0x11, 0x35, 0xfe, 0x38, 0x0c, 0xfa, 0xfb,
  0xff, 0xfc, 0x08, 0xf6, 0xf6, 0xbe, 0x18, 0x02, 0x02, 0x29, 0xdf, 0xd0,
  0x16, 0xe0, 0xb6, 0xd5, 0x0d, 0x0e, 0x21, 0x0c, 0x03, 0xeb, 0xf4, 0xc3,
  0x4b, 0x28, 0x07, 0x40, 0x33, 0xdb, 0xf1, 0x18, 0x1f, 0x2b, 0x3a, 0x49,
  0xfd, 0x33, 0x04, 0xbd, 0xeb, 0x01, 0xf1, 0xea, 0xec, 0xe2, 0x13, 0xe4,
  0x08, 0xc2, 0x2d, 0x51, 0xab, 0x03, 0x0e, 0x1f, 0x00, 0xbd, 0xda, 0xfa,
  0x45, 0x15, 0xe3, 0xe1, 0x14, 0xd8, 0xf1, 0xd4, 0xb9, 0x4d, 0xe1, 0xd6,
  0xf0, 0xaf, 0x28, 0xa7, 0xde, 0x05, 0xe0, 0xcb, 0x0d, 0xda, 0xe5, 0xb5,
  0xfc, 0x1b, 0xd9, 0xb7, 0xe4, 0x1e, 0xcf, 0xe7, 0xd2, 0x0d, 0xb5, 0xb2,
  0xe9, 0x14, 0xf2, 0x24, 0x1d, 0xf0, 0xe1, 0xec, 0xe5, 0x2e, 0xcd, 0xde,
  0x4f, 0xf0, 0x1b, 0xdc, 0x26, 0x37, 0x2a, 0xb4, 0xf2, 0xd1, 0x2e, 0xe1,
  0x0f, 0x1b, 0xa5, 0x23, 0x07, 0x01, 0x1b, 0xf4, 0xd7, 0x38, 0xfc, 0x34,
  0x37, 0x05, 0xcc, 0xf3, 0x09, 0x48, 0xa6, 0xfe, 0xe6, 0xdf, 0x09, 0x20,
  0xfb, 0xb0, 0xf5, 0xa7, 0xf7, 0xd4, 0x32, 0x46, 0x32, 0x1b, 0x0a, 0x23,
  0xf2, 0x2d, 0xe4, 0x27, 0x07, 0xfa, 0xd4, 0x18, 0xd4, 0x3f, 0x03, 0xd7,
  0xd5, 0xe6, 0xf3, 0x18, 0xfb, 0x20, 0x11, 0x50, 0xda, 0x1f, 0x27, 0xe9,
  0x0f, 0xe1, 0x06, 0x11, 0xf8, 0xfc, 0xda, 0x14, 0xf4, 0x34, 0x21, 0xe0,
  0xda, 0x3c, 0xd4, 0x09, 0xce, 0x11, 0xb1, 0x53, 0x19, 0xe4, 0xfb, 0x1c,
  0xd8, 0x36, 0x10, 0x2f, 0xc9, 0xac, 0xe9, 0x16, 0xee, 0x16, 0x06, 0x28,
  0xac, 0x30, 0x12, 0x14, 0x12, 0xfd, 0x12, 0x16, 0x2b, 0xcc, 0x1a, 0xef,
  0xc7, 0xe5, 0x0e, 0x16, 0xf4, 0x0a, 0xde, 0xe4, 0x15, 0xfb, 0x3f, 0xe9,
  0xb3, 0xea, 0x11, 0xe1, 0x09, 0x21, 0xcc, 0x01, 0x03, 0x36, 0xe8, 0xe9,
  0xfa, 0x29, 0x2b, 0x1c, 0x2a, 0x30, 0x3f, 0xcc, 0x08, 0xf5, 0x09, 0x51,
  0xce, 0x1a, 0xeb, 0xf2, 0x28, 0xf3, 0xdd, 0xe0, 0x14, 0xdb, 0x22, 0xf1,
  0xf3, 0x44, 0xd0, 0xc7, 0xee, 0xd6, 0xe1, 0x4d, 0xa6, 0x22, 0xea, 0xe5,
  0xeb, 0xf6, 0xe2, 0x36, 0xc7, 0xf1, 0x15, 0x0e, 0x4e, 0xe4, 0x08, 0xdd,
  0xbc, 0xec, 0xe9, 0x05, 0xb7, 0x00, 0xef, 0xf3, 0x10, 0xab, 0x14, 0xf5,
  0xfa, 0xfa, 0xff, 0xff, 0x04, 0x00, 0x00, 0x00, 0xc8, 0x00, 0x00, 0x00,
  0xd0, 0xf9, 0xff, 0xff, 0x7f, 0x06, 0x00, 0x00, 0xb5, 0x18, 0x00, 0x00,
  0x95, 0xfe, 0xff, 0xff, 0xf6, 0xff, 0xff, 0xff, 0x8f, 0x13, 0x00, 0x00,
  0x28, 0x02, 0x00, 0x00, 0x72, 0x04, 0x00, 0x00, 0x7e, 0xff, 0xff, 0xff,
  0x82, 0x0c, 0x00, 0x00, 0x86, 0x04, 0x00, 0x00, 0xeb, 0xfe, 0xff, 0xff,
  0xf2, 0x00, 0x00, 0x00, 0x6d, 0xfb, 0xff, 0xff, 0x57, 0xff, 0xff, 0xff,
  0x6d, 0x17, 0x00, 0x00, 0x18, 0x03, 0x00, 0x00, 0x5d, 0xfe, 0xff, 0xff,
  0xc3, 0x05, 0x00, 0x00, 0x6e, 0x08, 0x00, 0x00, 0x14, 0x09, 0x00, 0x00,
  0x85, 0x15, 0x00, 0x00, 0x49, 0x01, 0x00, 0x00, 0xb8, 0xfd, 0xff, 0xff,
  0x93, 0x0b, 0x00, 0x00, 0x3d, 0xfd, 0xff, 0xff, 0xa1, 0x09, 0x00, 0x00,
  0x7a, 0x02, 0x00, 0x00, 0x42, 0xfd, 0xff, 0xff, 0x64, 0x07, 0x00, 0x00,
  0xb9, 0x03, 0x00, 0x00, 0x36, 0x03, 0x00, 0x00, 0x00, 0xf9, 0xff, 0xff,
  0x85, 0x0b, 0x00, 0x00, 0x55, 0x09, 0x00, 0x00, 0x2c, 0x0f, 0x00, 0x00,
  0xc5, 0x0e, 0x00, 0x00, 0x8a, 0xf5, 0xff, 0xff, 0xd9, 0x01, 0x00, 0x00,
  0x4c, 0x03, 0x00, 0x00, 0x8c, 0xfe, 0xff, 0xff, 0x76, 0x0c, 0x00, 0x00,
  0x02, 0xfa, 0xff, 0xff, 0xcf, 0xf9, 0xff, 0xff, 0xb8, 0x04, 0x00, 0x00,
  0xca, 0x09, 0x00, 0x00, 0x43, 0x13, 0x00, 0x00, 0x30, 0xff, 0xff, 0xff,
  0xa1, 0x00, 0x00, 0x00, 0x86, 0x14, 0x00, 0x00, 0xce, 0xfb, 0xff, 0xff,
  0x04, 0x00, 0x00, 0x00, 0xee, 0x02, 0x00, 0x00, 0x07, 0xeb, 0xc4, 0xae,
  0xc1, 0x26, 0xed, 0x1e, 0xe3, 0xe3, 0x05, 0x01, 0xda, 0x01, 0x1d, 0x61,
  0x15, 0xe4, 0x01, 0xdb, 0xc9, 0x18, 0x1d, 0x56, 0x56, 0x19, 0x1b, 0xe5,
  0xdc, 0xc3, 0x0e, 0x32, 0xe3, 0x27, 0x98, 0x06, 0xd9, 0x2d, 0x26, 0xf4,
  0x63, 0xf1, 0x2a, 0xfe, 0x25, 0x70, 0x2f, 0xe5, 0xda, 0x17, 0x1a, 0x05,
  0x7f, 0x0a, 0xdd, 0xd1, 0xd3, 0x12, 0xb6, 0x28, 0x37, 0xf1, 0x4a, 0xab,
  0xee, 0x23, 0xb8, 0x1c, 0x2b, 0x1c, 0xff, 0xf1, 0x11, 0x0c, 0x24, 0xde,
  0x19, 0xdd, 0xc6, 0x17, 0xe4, 0x4f, 0x0f, 0xfd, 0x38, 0xcb, 0xd0, 0x3b,
  0x04, 0xfa, 0xda, 0x21, 0x24, 0xff, 0x2a, 0xc4, 0x2b, 0x1d, 0x25, 0x1e,
  0xe7, 0x05, 0x13, 0x00, 0xb2, 0x2f, 0x4a, 0xc6, 0x00, 0x6a, 0x3a, 0xda,
  0x08, 0xf0, 0x14, 0x39, 0xe3, 0x33, 0xf0, 0xeb, 0x0a, 0x02, 0x2f, 0xfd,
  0xfb, 0xfd, 0x02, 0xe9, 0x13, 0x09, 0xfd, 0x58, 0xe0, 0x52, 0x09, 0x14,
  0x71, 0xcb, 0x1a, 0xfa, 0xb9, 0xe0, 0x26, 0xda, 0xe2, 0xf5, 0xe5, 0x00,
  0xca, 0x32, 0xfb, 0xe6, 0x40, 0x01, 0x5f, 0x7e, 0xec, 0xfc, 0xeb, 0xcf,
  0x20, 0xd1, 0x2e, 0x15, 0xfa, 0x60, 0x07, 0xe9, 0xe5, 0x03, 0x3d, 0x40,
  0x04, 0xa2, 0xfa, 0x33, 0x13, 0x18, 0x0f, 0x15, 0xd1, 0x0c, 0x2b, 0xf2,
  0xbb, 0x64, 0x4d, 0xfc, 0xaf, 0xe0, 0x66, 0x21, 0xc3, 0xb4, 0x08, 0x46,
  0x1b, 0xfc, 0x0f, 0x57, 0xf3, 0x21, 0x1a, 0x10, 0xf4, 0xfc, 0xd3, 0xf9,
  0x2b, 0x24, 0x67, 0xe2, 0x19, 0x00, 0xf3, 0x28, 0x24, 0xa6, 0xd1, 0xc4,
  0x16, 0xf2, 0xbd, 0xf7, 0xd9, 0x1c, 0xb5, 0xf5, 0x11, 0x16, 0x2f, 0x33,
  0xfc, 0x57, 0x04, 0x05, 0x20, 0xeb, 0x29, 0xfc, 0xe3, 0xf3, 0xc5, 0x1f,
  0xd2, 0x0c, 0x20, 0xe3, 0x1b, 0xef, 0xcc, 0x0d, 0xee, 0x2e, 0x32, 0x4a,
  0xc9, 0x11, 0xca, 0x03, 0x19, 0x2d, 0x3c, 0x0c, 0x14, 0xc0, 0x00, 0xde,
  0x1a, 0xc1, 0xf1, 0x04, 0x0d, 0xe1, 0xd7, 0x0a, 0xfd, 0xfa, 0x16, 0x09,
  0xaf, 0xa2, 0xdd, 0x6a, 0x0c, 0x04, 0x2a, 0x31, 0xec, 0xdd, 0xde, 0xe6,
  0x2c, 0x14, 0x32, 0x14, 0xb1, 0x42, 0xf1, 0xd6, 0xd0, 0x48, 0x08, 0xdc,
  0x19, 0x24, 0xf4, 0x7e, 0x9f, 0xfe, 0xcf, 0xf2, 0x13, 0xc3, 0x32, 0xf1,
  0xbb, 0xcc, 0xfb, 0xf8, 0x1c, 0xf1, 0xe4, 0x1a, 0x4c, 0x1e, 0x30, 0xe7,
  0x24, 0xec, 0x11, 0x4c, 0xfb, 0xd8, 0x6c, 0x2d, 0x20, 0x09, 0xb5, 0x33,
  0x36, 0x39, 0xec, 0x24, 0xa2, 0x16, 0x60, 0xee, 0x46, 0x10, 0x33, 0x00,
  0xf1, 0x04, 0xe6, 0x49, 0x1f, 0x3a, 0x31, 0x15, 0x26, 0xd0, 0xd5, 0xb5,
  0xd2, 0x5f, 0x01, 0x15, 0x22, 0x22, 0x14, 0x5e, 0xd5, 0xdc, 0xcc, 0xe8,
  0x09, 0xf8, 0xde, 0x25, 0x1f, 0xc9, 0xe7, 0x48, 0xcd, 0xbc, 0x1e, 0xef,
  0xeb, 0x48, 0x0c, 0xfe, 0xd8, 0x14, 0xc8, 0x2c, 0x01, 0x28, 0x25, 0x23,
  0x16, 0x05, 0x75, 0x21, 0x10, 0xbc, 0x56, 0xf0, 0x54, 0xf8, 0xf0, 0x02,
  0xf3, 0x15, 0x63, 0xb2, 0x08, 0xc0, 0xa1, 0x4d, 0xee, 0x22, 0x2a, 0xe0,
  0x34, 0x07, 0x07, 0x5b, 0x1c, 0x03, 0x51, 0x1d, 0x0d, 0xe0, 0x2e, 0x0f,
  0xed, 0xd2, 0x68, 0x28, 0xa7, 0x41, 0xc8, 0x2a, 0xf8, 0xdc, 0x73, 0x37,
  0x34, 0x60, 0xff, 0x2b, 0x22, 0x26, 0xf4, 0xd6, 0x21, 0xd8, 0x3b, 0xe4,
  0x0c, 0xa9, 0xde, 0x9b, 0xaf, 0x29, 0xcf, 0x00, 0xc5, 0x3e, 0x16, 0xc7,
  0xfc, 0x36, 0x3b, 0xfc, 0xac, 0x3d, 0xd8, 0x3b, 0xd6, 0xbf, 0x46, 0x1f,
  0x11, 0x13, 0xba, 0xbe, 0xb7, 0x0e, 0x27, 0x03, 0xd1, 0x54, 0xe6, 0xf4,
  0xb7, 0x18, 0x3e, 0x0b, 0x04, 0x4c, 0x4b, 0x1d, 0xc4, 0xb8, 0x41, 0x05,
  0xbf, 0x1f, 0xe7, 0x6b, 0x19, 0x31, 0xa5, 0x10, 0xdd, 0xe4, 0xa7, 0xdf,
  0x24, 0x10, 0xb5, 0xfa, 0x23, 0xbc, 0xda, 0x0b, 0x30, 0x38, 0xf0, 0x04,
  0xb2, 0xf0, 0x11, 0x51, 0xb9, 0xbd, 0xed, 0x5c, 0x31, 0xbd, 0x0e, 0xc0,
  0x2e, 0xef, 0xd6, 0xe3, 0x24, 0x2f, 0x32, 0x26, 0x24, 0x30, 0x20, 0xf1,
  0xb0, 0xfc, 0xfc, 0xe0, 0xe3, 0x17, 0x2c, 0xed, 0x52, 0xed, 0x37, 0xd3,
  0xcd, 0x47, 0xf0, 0xf7, 0xeb, 0x3d, 0xdc, 0x29, 0xfa, 0xf8, 0xf9, 0xd0,
  0x27, 0xf5, 0xc0, 0x0d, 0xc8, 0x5e, 0xd3, 0xdf, 0x4f, 0x50, 0x1a, 0x6b,
  0x32, 0xdd, 0x43, 0x16, 0x30, 0xec, 0xca, 0x33, 0x0b, 0x37, 0xea, 0xe7,
  0xe4, 0xd8, 0x15, 0x01, 0x2c, 0x29, 0x2a, 0x51, 0x04, 0x15, 0x08, 0x29,
  0x33, 0x07, 0xba, 0x22, 0xab, 0x1e, 0x0e, 0x00, 0x00, 0xc9, 0xc6, 0x0b,
  0xb3, 0xff, 0x01, 0xa9, 0x10, 0xda, 0x1a, 0x77, 0x03, 0x5e, 0xfa, 0xf1,
  0x0d, 0x38, 0xe9, 0xdd, 0x12, 0x2c, 0x2c, 0x0a, 0x17, 0x18, 0xbe, 0xe8,
  0x64, 0x9e, 0x0a, 0x64, 0x2c, 0x28, 0x31, 0x40, 0xfa, 0x0f, 0xa7, 0xe6,
  0xef, 0xbb, 0xd7, 0x00, 0x2c, 0xbe, 0xee, 0xda, 0x21, 0xbb, 0x48, 0x1d,
  0x2c, 0xe3, 0xec, 0x1c, 0xe6, 0x34, 0x0e, 0x47, 0x43, 0x3b, 0xf9, 0x17,
  0x03, 0xbd, 0x29, 0x15, 0xdc, 0xbb, 0x00, 0x20, 0x62, 0xfc, 0x08, 0xc6,
  0xcd, 0x1a, 0x21, 0xd2, 0x31, 0x36, 0x01, 0x12, 0xd8, 0x1e, 0xbc, 0xc6,
  0xf3, 0x3a, 0x2b, 0x47, 0xec, 0x0b, 0xab, 0x6c, 0x9a, 0x63, 0xf0, 0xfb,
  0x26, 0xe9, 0xca, 0xa9, 0xda, 0xe8, 0x2c, 0xf2, 0xd3, 0xee, 0xd3, 0x20,
  0x48, 0xf7, 0x3c, 0xe5, 0xd1, 0xf1, 0x05, 0xc4, 0x1c, 0x3e, 0x33, 0x14,
  0xf2, 0xe1, 0x00, 0x00, 0xca, 0xfe, 0xff, 0xff, 0x04, 0x00, 0x00, 0x00,
  0x2d, 0x00, 0x00, 0x00, 0xf3, 0xe1, 0x7f, 0x62, 0x3b, 0x24, 0xcc, 0x5e,
  0xcf, 0x42, 0xc8, 0xa6, 0xc4, 0xfc, 0xd1, 0x2c, 0x12, 0x85, 0x37, 0x2c,
  0xee, 0xa2, 0xc6, 0x68, 0xd9, 0xf8, 0x5c, 0x67, 0xba, 0x17, 0x98, 0x51,
  0x16, 0x9b, 0xf1, 0xff, 0xfe, 0xef, 0x31, 0xff, 0xb3, 0xc9, 0xfe, 0x31,
  0x9e, 0x00, 0x00, 0x00, 0x06, 0xff, 0xff, 0xff, 0x04, 0x00, 0x00, 0x00,
  0x3c, 0x00, 0x00, 0x00, 0xd7, 0x05, 0x00, 0x00, 0x81, 0x08, 0x00, 0x00,
  0x7e, 0x07, 0x00, 0x00, 0xdc, 0x09, 0x00, 0x00, 0x52, 0x05, 0x00, 0x00,
  0x4f, 0x06, 0x00, 0x00, 0x96, 0x06, 0x00, 0x00, 0xba, 0x0b, 0x00, 0x00,
  0x04, 0x09, 0x00, 0x00, 0x9e, 0xfc, 0xff, 0xff, 0x6b, 0x02, 0x00, 0x00,
  0xd9, 0x02, 0x00, 0x00, 0x64, 0x00, 0x00, 0x00, 0xbe, 0x07, 0x00, 0x00,
  0x16, 0xfe, 0xff, 0xff, 0x4e, 0xff, 0xff, 0xff, 0x04, 0x00, 0x00, 0x00,
  0x0c, 0x00, 0x00, 0x00, 0x93, 0xff, 0xff, 0xff, 0xb3, 0xfc, 0xff, 0xff,
  0x8d, 0x01, 0x00, 0x00, 0x34, 0xff, 0xff, 0xff, 0x0f, 0x00, 0x00, 0x00,
  0x54, 0x4f, 0x43, 0x4f, 0x20, 0x43, 0x6f, 0x6e, 0x76, 0x65, 0x72, 0x74,
  0x65, 0x64, 0x2e, 0x00, 0x01, 0x00, 0x00, 0x00, 0x04, 0x00, 0x00, 0x00,
  0x00, 0xf9, 0xff, 0xff, 0x94, 0x01, 0x00, 0x00, 0x88, 0x01, 0x00, 0x00,
  0x7c, 0x01, 0x00, 0x00, 0x04, 0x00, 0x00, 0x00, 0x06, 0x00, 0x00, 0x00,
  0x50, 0x01, 0x00, 0x00, 0x04, 0x01, 0x00, 0x00, 0xbc, 0x00, 0x00, 0x00,
  0x74, 0x00, 0x00, 0x00, 0x38, 0x00, 0x00, 0x00, 0x04, 0x00, 0x00, 0x00,
  0xd2, 0xfe, 0xff, 0xff, 0x03, 0x00, 0x00, 0x00, 0x10, 0x00, 0x00, 0x00,
  0x04, 0x00, 0x00, 0x00, 0x01, 0x00, 0x00, 0x00, 0x0c, 0x00, 0x00, 0x00,
  0x01, 0x00, 0x00, 0x00, 0x00, 0x00, 0x00, 0x00, 0x00, 0x00, 0x0e, 0x00,
  0x1a, 0x00, 0x08, 0x00, 0x0c, 0x00, 0x10, 0x00, 0x07, 0x00, 0x14, 0x00,
  0x0e, 0x00, 0x00, 0x00, 0x00, 0x00, 0x00, 0x09, 0x01, 0x00, 0x00, 0x00,
  0x24, 0x00, 0x00, 0x00, 0x18, 0x00, 0x00, 0x00, 0x0c, 0x00, 0x00, 0x00,
  0x00, 0x00, 0x06, 0x00, 0x08, 0x00, 0x04, 0x00, 0x06, 0x00, 0x00, 0x00,
  0x00, 0x00, 0x80, 0x3f, 0x01, 0x00, 0x00, 0x00, 0x00, 0x00, 0x00, 0x00,
  0x01, 0x00, 0x00, 0x00, 0x08, 0x00, 0x00, 0x00, 0xca, 0xff, 0xff, 0xff,
  0x00, 0x00, 0x00, 0x08, 0x1c, 0x00, 0x00, 0x00, 0x10, 0x00, 0x00, 0x00,
  0x08, 0x00, 0x00, 0x00, 0x04, 0x00, 0x04, 0x00, 0x04, 0x00, 0x00, 0x00,
  0x01, 0x00, 0x00, 0x00, 0x08, 0x00, 0x00, 0x00, 0x03, 0x00, 0x00, 0x00,
  0x07, 0x00, 0x00, 0x00, 0x09, 0x00, 0x00, 0x00, 0x0a, 0x00, 0x00, 0x00,
  0x00, 0x00, 0x0e, 0x00, 0x14, 0x00, 0x00, 0x00, 0x08, 0x00, 0x0c, 0x00,
  0x07, 0x00, 0x10, 0x00, 0x0e, 0x00, 0x00, 0x00, 0x00, 0x00, 0x00, 0x08,
  0x1c, 0x00, 0x00, 0x00, 0x10, 0x00, 0x00, 0x00, 0x04, 0x00, 0x00, 0x00,
  0xba, 0xff, 0xff, 0xff, 0x00, 0x00, 0x00, 0x01, 0x01, 0x00, 0x00, 0x00,
  0x07, 0x00, 0x00, 0x00, 0x03, 0x00, 0x00, 0x00, 0x04, 0x00, 0x00, 0x00,
  0x05, 0x00, 0x00, 0x00, 0x06, 0x00, 0x00, 0x00, 0x00, 0x00, 0x0e, 0x00,
  0x16, 0x00, 0x00, 0x00, 0x08, 0x00, 0x0c, 0x00, 0x07, 0x00, 0x10, 0x00,
  0x0e, 0x00, 0x00, 0x00, 0x00, 0x00, 0x00, 0x08, 0x24, 0x00, 0x00, 0x00,
  0x18, 0x00, 0x00, 0x00, 0x0c, 0x00, 0x00, 0x00, 0x00, 0x00, 0x06, 0x00,
  0x08, 0x00, 0x07, 0x00, 0x06, 0x00, 0x00, 0x00, 0x00, 0x00, 0x00, 0x01,
  0x01, 0x00, 0x00, 0x00, 0x04, 0x00, 0x00, 0x00, 0x03, 0x00, 0x00, 0x00,
  0x01, 0x00, 0x00, 0x00, 0x02, 0x00, 0x00, 0x00, 0x03, 0x00, 0x00, 0x00,
  0x00, 0x00, 0x0a, 0x00, 0x10, 0x00, 0x04, 0x00, 0x08, 0x00, 0x0c, 0x00,
  0x0a, 0x00, 0x00, 0x00, 0x02, 0x00, 0x00, 0x00, 0x10, 0x00, 0x00, 0x00,
  0x04, 0x00, 0x00, 0x00, 0x01, 0x00, 0x00, 0x00, 0x01, 0x00, 0x00, 0x00,
  0x01, 0x00, 0x00, 0x00, 0x0b, 0x00, 0x00, 0x00, 0x01, 0x00, 0x00, 0x00,
  0x0c, 0x00, 0x00, 0x00, 0x01, 0x00, 0x00, 0x00, 0x0b, 0x00, 0x00, 0x00,
  0x0d, 0x00, 0x00, 0x00, 0xe4, 0x05, 0x00, 0x00, 0x48, 0x05, 0x00, 0x00,
  0xa8, 0x04, 0x00, 0x00, 0x34, 0x04, 0x00, 0x00, 0xb0, 0x03, 0x00, 0x00,
  0x0c, 0x03, 0x00, 0x00, 0x98, 0x02, 0x00, 0x00, 0x14, 0x02, 0x00, 0x00,
  0x88, 0x01, 0x00, 0x00, 0xe4, 0x00, 0x00, 0x00, 0x70, 0x00, 0x00, 0x00,
  0x3c, 0x00, 0x00, 0x00, 0x04, 0x00, 0x00, 0x00, 0xd8, 0xff, 0xff, 0xff,
  0x18, 0x00, 0x00, 0x00, 0x04, 0x00, 0x00, 0x00, 0x08, 0x00, 0x00, 0x00,
  0x49, 0x64, 0x65, 0x6e, 0x74, 0x69, 0x74, 0x79, 0x00, 0x00, 0x00, 0x00,
  0x02, 0x00, 0x00, 0x00, 0x01, 0x00, 0x00, 0x00, 0x03, 0x00, 0x00, 0x00,
  0x0c, 0x00, 0x0c, 0x00, 0x04, 0x00, 0x00, 0x00, 0x00, 0x00, 0x08, 0x00,
  0x0c, 0x00, 0x00, 0x00, 0x20, 0x00, 0x00, 0x00, 0x04, 0x00, 0x00, 0x00,
  0x12, 0x00, 0x00, 0x00, 0x64, 0x65, 0x6e, 0x73, 0x65, 0x5f, 0x44, 0x65,
  0x6e, 0x73, 0x65, 0x34, 0x5f, 0x69, 0x6e, 0x70, 0x75, 0x74, 0x00, 0x00,
  0x02, 0x00, 0x00, 0x00, 0x01, 0x00, 0x00, 0x00, 0x78, 0x00, 0x00, 0x00,
  0xc2, 0xfa, 0xff, 0xff, 0x00, 0x00, 0x00, 0x02, 0x60, 0x00, 0x00, 0x00,
  0x01, 0x00, 0x00, 0x00, 0x2c, 0x00, 0x00, 0x00, 0x04, 0x00, 0x00, 0x00,
  0xb4, 0xfa, 0xff, 0xff, 0x18, 0x00, 0x00, 0x00, 0x04, 0x00, 0x00, 0x00,
  0x01, 0x00, 0x00, 0x00, 0x00, 0x00, 0x00, 0x00, 0x00, 0x00, 0x00, 0x00,
  0x00, 0x00, 0x00, 0x00, 0x01, 0x00, 0x00, 0x00, 0xa0, 0x5c, 0x94, 0x38,
  0x25, 0x00, 0x00, 0x00, 0x73, 0x65, 0x71, 0x75, 0x65, 0x6e, 0x74, 0x69,
  0x61, 0x6c, 0x5f, 0x32, 0x2f, 0x64, 0x65, 0x6e, 0x73, 0x65, 0x5f, 0x44,
  0x65, 0x6e, 0x73, 0x65, 0x36, 0x2f, 0x4d, 0x61, 0x74, 0x4d, 0x75, 0x6c,
  0x5f, 0x62, 0x69, 0x61, 0x73, 0x00, 0x00, 0x00, 0x01, 0x00, 0x00, 0x00,
  0x03, 0x00, 0x00, 0x00, 0x32, 0xfb, 0xff, 0xff, 0x00, 0x00, 0x00, 0x09,
  0x8c, 0x00, 0x00, 0x00, 0x03, 0x00, 0x00, 0x00, 0x44, 0x00, 0x00, 0x00,
  0x04, 0x00, 0x00, 0x00, 0xbc, 0xfb, 0xff, 0xff, 0x30, 0x00, 0x00, 0x00,
  0x24, 0x00, 0x00, 0x00, 0x18, 0x00, 0x00, 0x00, 0x04, 0x00, 0x00, 0x00,
  0x01, 0x00, 0x00, 0x00, 0x00, 0x00, 0x00, 0x00, 0x00, 0x00, 0x00, 0x00,
  0x00, 0x00, 0x00, 0x00, 0x01, 0x00, 0x00, 0x00, 0x04, 0x02, 0xb5, 0x3b,
  0x01, 0x00, 0x00, 0x00, 0x00, 0x98, 0x33, 0x3f, 0x01, 0x00, 0x00, 0x00,
  0x09, 0xbe, 0x2d, 0xbf, 0x39, 0x00, 0x00, 0x00, 0x73, 0x65, 0x71, 0x75,
  0x65, 0x6e, 0x74, 0x69, 0x61, 0x6c, 0x5f, 0x32, 0x2f, 0x64, 0x65, 0x6e,
  0x73, 0x65, 0x5f, 0x44, 0x65, 0x6e, 0x73, 0x65, 0x36, 0x2f, 0x4d, 0x61,
  0x74, 0x4d, 0x75, 0x6c, 0x2f, 0x52, 0x65, 0x61, 0x64, 0x56, 0x61, 0x72,
  0x69, 0x61, 0x62, 0x6c, 0x65, 0x4f, 0x70, 0x2f, 0x74, 0x72, 0x61, 0x6e,
  0x73, 0x70, 0x6f, 0x73, 0x65, 0x00, 0x00, 0x00, 0x02, 0x00, 0x00, 0x00,
  0x03, 0x00, 0x00, 0x00, 0x0f, 0x00, 0x00, 0x00, 0xd2, 0xfb, 0xff, 0xff,
  0x00, 0x00, 0x00, 0x09, 0x74, 0x00, 0x00, 0x00, 0x0b, 0x00, 0x00, 0x00,
  0x44, 0x00, 0x00, 0x00, 0x04, 0x00, 0x00, 0x00, 0x5c, 0xfc, 0xff, 0xff,
  0x30, 0x00, 0x00, 0x00, 0x24, 0x00, 0x00, 0x00, 0x18, 0x00, 0x00, 0x00,
  0x04, 0x00, 0x00, 0x00, 0x01, 0x00, 0x00, 0x00, 0xdb, 0xff, 0xff, 0xff,
  0xff, 0xff, 0xff, 0xff, 0x00, 0x00, 0x00, 0x00, 0x01, 0x00, 0x00, 0x00,
  0x0a, 0x04, 0xcb, 0x3c, 0x01, 0x00, 0x00, 0x00, 0x6f, 0xbd, 0x81, 0x40,
  0x01, 0x00, 0x00, 0x00, 0x2f, 0xf7, 0x10, 0xc0, 0x21, 0x00, 0x00, 0x00,
  0x73, 0x65, 0x71, 0x75, 0x65, 0x6e, 0x74, 0x69, 0x61, 0x6c, 0x5f, 0x32,
  0x2f, 0x64, 0x65, 0x6e, 0x73, 0x65, 0x5f, 0x44, 0x65, 0x6e, 0x73, 0x65,
  0x36, 0x2f, 0x42, 0x69, 0x61, 0x73, 0x41, 0x64, 0x64, 0x00, 0x00, 0x00,
  0x02, 0x00, 0x00, 0x00, 0x01, 0x00, 0x00, 0x00, 0x03, 0x00, 0x00, 0x00,
  0x5a, 0xfc, 0xff, 0xff, 0x00, 0x00, 0x00, 0x09, 0x6c, 0x00, 0x00, 0x00,
  0x09, 0x00, 0x00, 0x00, 0x40, 0x00, 0x00, 0x00, 0x04, 0x00, 0x00, 0x00,
  0xe4, 0xfc, 0xff, 0xff, 0x2c, 0x00, 0x00, 0x00, 0x20, 0x00, 0x00, 0x00,
  0x14, 0x00, 0x00, 0x00, 0x04, 0x00, 0x00, 0x00, 0x01, 0x00, 0x00, 0x00,
  0x80, 0xff, 0xff, 0xff, 0xff, 0xff, 0xff, 0xff, 0x01, 0x00, 0x00, 0x00,
  0x1e, 0xd4, 0x51, 0x3c, 0x01, 0x00, 0x00, 0x00, 0x4a, 0x02, 0x51, 0x40,
  0x01, 0x00, 0x00, 0x00, 0x00, 0x00, 0x00, 0x00, 0x1e, 0x00, 0x00, 0x00,
  0x73, 0x65, 0x71, 0x75, 0x65, 0x6e, 0x74, 0x69, 0x61, 0x6c, 0x5f, 0x32,
  0x2f, 0x64, 0x65, 0x6e, 0x73, 0x65, 0x5f, 0x44, 0x65, 0x6e, 0x73, 0x65,
  0x35, 0x2f, 0x52, 0x65, 0x6c, 0x75, 0x00, 0x00, 0x02, 0x00, 0x00, 0x00,
  0x01, 0x00, 0x00, 0x00, 0x0f, 0x00, 0x00, 0x00, 0xda, 0xfc, 0xff, 0xff,
  0x00, 0x00, 0x00, 0x02, 0x60, 0x00, 0x00, 0x00, 0x02, 0x00, 0x00, 0x00,
  0x2c, 0x00, 0x00, 0x00, 0x04, 0x00, 0x00, 0x00, 0xcc, 0xfc, 0xff, 0xff,
  0x18, 0x00, 0x00, 0x00, 0x04, 0x00, 0x00, 0x00, 0x01, 0x00, 0x00, 0x00,
  0x00, 0x00, 0x00, 0x00, 0x00, 0x00, 0x00, 0x00, 0x00, 0x00, 0x00, 0x00,
  0x01, 0x00, 0x00, 0x00, 0xf2, 0x36, 0x00, 0x38, 0x25, 0x00, 0x00, 0x00,
  0x73, 0x65, 0x71, 0x75, 0x65, 0x6e, 0x74, 0x69, 0x61, 0x6c, 0x5f, 0x32,
  0x2f, 0x64, 0x65, 0x6e, 0x73, 0x65, 0x5f, 0x44, 0x65, 0x6e, 0x73, 0x65,
  0x35, 0x2f, 0x4d, 0x61, 0x74, 0x4d, 0x75, 0x6c, 0x5f, 0x62, 0x69, 0x61,
  0x73, 0x00, 0x00, 0x00, 0x01, 0x00, 0x00, 0x00, 0x0f, 0x00, 0x00, 0x00,
  0x4a, 0xfd, 0xff, 0xff, 0x00, 0x00, 0x00, 0x09, 0x8c, 0x00, 0x00, 0x00,
  0x04, 0x00, 0x00, 0x00, 0x44, 0x00, 0x00, 0x00, 0x04, 0x00, 0x00, 0x00,
  0xd4, 0xfd, 0xff, 0xff, 0x30, 0x00, 0x00, 0x00, 0x24, 0x00, 0x00, 0x00,
  0x18, 0x00, 0x00, 0x00, 0x04, 0x00, 0x00, 0x00, 0x01, 0x00, 0x00, 0x00,
  0x00, 0x00, 0x00, 0x00, 0x00, 0x00, 0x00, 0x00, 0x00, 0x00, 0x00, 0x00,
  0x01, 0x00, 0x00, 0x00, 0xef, 0x40, 0x65, 0x3b, 0x01, 0x00, 0x00, 0x00,
  0x6d, 0x76, 0xe3, 0x3e, 0x01, 0x00, 0x00, 0x00, 0x70, 0x7e, 0xb9, 0xbe,
  0x39, 0x00, 0x00, 0x00, 0x73, 0x65, 0x71, 0x75, 0x65, 0x6e, 0x74, 0x69,
  0x61, 0x6c, 0x5f, 0x32, 0x2f, 0x64, 0x65, 0x6e, 0x73, 0x65, 0x5f, 0x44,
  0x65, 0x6e, 0x73, 0x65, 0x35, 0x2f, 0x4d, 0x61, 0x74, 0x4d, 0x75, 0x6c,
  0x2f, 0x52, 0x65, 0x61, 0x64, 0x56, 0x61, 0x72, 0x69, 0x61, 0x62, 0x6c,
  0x65, 0x4f, 0x70, 0x2f, 0x74, 0x72, 0x61, 0x6e, 0x73, 0x70, 0x6f, 0x73,
  0x65, 0x00, 0x00, 0x00, 0x02, 0x00, 0x00, 0x00, 0x0f, 0x00, 0x00, 0x00,
  0x32, 0x00, 0x00, 0x00, 0xea, 0xfd, 0xff, 0xff, 0x00, 0x00, 0x00, 0x09,
  0x6c, 0x00, 0x00, 0x00, 0x08, 0x00, 0x00, 0x00, 0x40, 0x00, 0x00, 0x00,
  0x04, 0x00, 0x00, 0x00, 0x74, 0xfe, 0xff, 0xff, 0x2c, 0x00, 0x00, 0x00,
  0x20, 0x00, 0x00, 0x00, 0x14, 0x00, 0x00, 0x00, 0x04, 0x00, 0x00, 0x00,
  0x01, 0x00, 0x00, 0x00, 0x80, 0xff, 0xff, 0xff, 0xff, 0xff, 0xff, 0xff,
  0x01, 0x00, 0x00, 0x00, 0x4d, 0x2c, 0x0f, 0x3c, 0x01, 0x00, 0x00, 0x00,
  0x21, 0x9d, 0x0e, 0x40, 0x01, 0x00, 0x00, 0x00, 0x00, 0x00, 0x00, 0x00,
  0x1e, 0x00, 0x00, 0x00, 0x73, 0x65, 0x71, 0x75, 0x65, 0x6e, 0x74, 0x69,
  0x61, 0x6c, 0x5f, 0x32, 0x2f, 0x64, 0x65, 0x6e, 0x73, 0x65, 0x5f, 0x44,
  0x65, 0x6e, 0x73, 0x65, 0x34, 0x2f, 0x52, 0x65, 0x6c, 0x75, 0x00, 0x00,
  0x02, 0x00, 0x00, 0x00, 0x01, 0x00, 0x00, 0x00, 0x32, 0x00, 0x00, 0x00,
  0x6a, 0xfe, 0xff, 0xff, 0x00, 0x00, 0x00, 0x02, 0x60, 0x00, 0x00, 0x00,
  0x05, 0x00, 0x00, 0x00, 0x2c, 0x00, 0x00, 0x00, 0x04, 0x00, 0x00, 0x00,
  0x5c, 0xfe, 0xff, 0xff, 0x18, 0x00, 0x00, 0x00, 0x04, 0x00, 0x00, 0x00,
  0x01, 0x00, 0x00, 0x00, 0x00, 0x00, 0x00, 0x00, 0x00, 0x00, 0x00, 0x00,
  0x00, 0x00, 0x00, 0x00, 0x01, 0x00, 0x00, 0x00, 0x1f, 0xfb, 0x9b, 0x37,
  0x25, 0x00, 0x00, 0x00, 0x73, 0x65, 0x71, 0x75, 0x65, 0x6e, 0x74, 0x69,
  0x61, 0x6c, 0x5f, 0x32, 0x2f, 0x64, 0x65, 0x6e, 0x73, 0x65, 0x5f, 0x44,
  0x65, 0x6e, 0x73, 0x65, 0x34, 0x2f, 0x4d, 0x61, 0x74, 0x4d, 0x75, 0x6c,
  0x5f, 0x62, 0x69, 0x61, 0x73, 0x00, 0x00, 0x00, 0x01, 0x00, 0x00, 0x00,
  0x32, 0x00, 0x00, 0x00, 0xda, 0xfe, 0xff, 0xff, 0x00, 0x00, 0x00, 0x09,
  0x88, 0x00, 0x00, 0x00, 0x06, 0x00, 0x00, 0x00, 0x40, 0x00, 0x00, 0x00,
  0x04, 0x00, 0x00, 0x00, 0x64, 0xff, 0xff, 0xff, 0x2c, 0x00, 0x00, 0x00,
  0x20, 0x00, 0x00, 0x00, 0x14, 0x00, 0x00, 0x00, 0x04, 0x00, 0x00, 0x00,
  0x01, 0x00, 0x00, 0x00, 0x00, 0x00, 0x00, 0x00, 0x00, 0x00, 0x00, 0x00,
  0x01, 0x00, 0x00, 0x00, 0x00, 0x64, 0x1b, 0x3b, 0x01, 0x00, 0x00, 0x00,
  0x38, 0x2d, 0x9a, 0x3e, 0x01, 0x00, 0x00, 0x00, 0x41, 0x7f, 0x8b, 0xbe,
  0x39, 0x00, 0x00, 0x00, 0x73, 0x65, 0x71, 0x75, 0x65, 0x6e, 0x74, 0x69,
  0x61, 0x6c, 0x5f, 0x32, 0x2f, 0x64, 0x65, 0x6e, 0x73, 0x65, 0x5f, 0x44,
  0x65, 0x6e, 0x73, 0x65, 0x34, 0x2f, 0x4d, 0x61, 0x74, 0x4d, 0x75, 0x6c,
  0x2f, 0x52, 0x65, 0x61, 0x64, 0x56, 0x61, 0x72, 0x69, 0x61, 0x62, 0x6c,
  0x65, 0x4f, 0x70, 0x2f, 0x74, 0x72, 0x61, 0x6e, 0x73, 0x70, 0x6f, 0x73,
  0x65, 0x00, 0x00, 0x00, 0x02, 0x00, 0x00, 0x00, 0x32, 0x00, 0x00, 0x00,
  0x78, 0x00, 0x00, 0x00, 0x76, 0xff, 0xff, 0xff, 0x00, 0x00, 0x00, 0x09,
  0x74, 0x00, 0x00, 0x00, 0x07, 0x00, 0x00, 0x00, 0x50, 0x00, 0x00, 0x00,
  0x10, 0x00, 0x00, 0x00, 0x0c, 0x00, 0x14, 0x00, 0x04, 0x00, 0x08, 0x00,
  0x0c, 0x00, 0x10, 0x00, 0x0c, 0x00, 0x00, 0x00, 0x30, 0x00, 0x00, 0x00,
  0x24, 0x00, 0x00, 0x00, 0x18, 0x00, 0x00, 0x00, 0x04, 0x00, 0x00, 0x00,
  0x01, 0x00, 0x00, 0x00, 0x00, 0x00, 0x00, 0x00, 0x00, 0x00, 0x00, 0x00,
  0x00, 0x00, 0x00, 0x00, 0x01, 0x00, 0x00, 0x00, 0x7c, 0x7c, 0x00, 0x3c,
  0x01, 0x00, 0x00, 0x00, 0x00, 0xf8, 0x7f, 0x3f, 0x01, 0x00, 0x00, 0x00,
  0x00, 0xf8, 0x7f, 0xbf, 0x17, 0x00, 0x00, 0x00, 0x64, 0x65, 0x6e, 0x73,
  0x65, 0x5f, 0x44, 0x65, 0x6e, 0x73, 0x65, 0x34, 0x5f, 0x69, 0x6e, 0x70,
  0x75, 0x74, 0x5f, 0x69, 0x6e, 0x74, 0x38, 0x00, 0x02, 0x00, 0x00, 0x00,
  0x01, 0x00, 0x00, 0x00, 0x78, 0x00, 0x00, 0x00, 0x00, 0x00, 0x0e, 0x00,
  0x18, 0x00, 0x08, 0x00, 0x07, 0x00, 0x0c, 0x00, 0x10, 0x00, 0x14, 0x00,
  0x0e, 0x00, 0x00, 0x00, 0x00, 0x00, 0x00, 0x09, 0x54, 0x00, 0x00, 0x00,
  0x0a, 0x00, 0x00, 0x00, 0x38, 0x00, 0x00, 0x00, 0x10, 0x00, 0x00, 0x00,
  0x0c, 0x00, 0x0c, 0x00, 0x00, 0x00, 0x00, 0x00, 0x04, 0x00, 0x08, 0x00,
  0x0c, 0x00, 0x00, 0x00, 0x18, 0x00, 0x00, 0x00, 0x04, 0x00, 0x00, 0x00,
  0x01, 0x00, 0x00, 0x00, 0x80, 0xff, 0xff, 0xff, 0xff, 0xff, 0xff, 0xff,
  0x00, 0x00, 0x00, 0x00, 0x01, 0x00, 0x00, 0x00, 0x00, 0x00, 0x80, 0x3b,
  0x0d, 0x00, 0x00, 0x00, 0x49, 0x64, 0x65, 0x6e, 0x74, 0x69, 0x74, 0x79,
  0x5f, 0x69, 0x6e, 0x74, 0x38, 0x00, 0x00, 0x00, 0x02, 0x00, 0x00, 0x00,
  0x01, 0x00, 0x00, 0x00, 0x03, 0x00, 0x00, 0x00, 0x04, 0x00, 0x00, 0x00,
  0x4c, 0x00, 0x00, 0x00, 0x30, 0x00, 0x00, 0x00, 0x1c, 0x00, 0x00, 0x00,
  0x04, 0x00, 0x00, 0x00, 0xe6, 0xff, 0xff, 0xff, 0x00, 0x00, 0x00, 0x06,
  0x02, 0x00, 0x00, 0x00, 0x00, 0x00, 0x06, 0x00, 0x06, 0x00, 0x05, 0x00,
  0x06, 0x00, 0x00, 0x00, 0x00, 0x72, 0x0a, 0x00, 0x0e, 0x00, 0x07, 0x00,
  0x00, 0x00, 0x08, 0x00, 0x0a, 0x00, 0x00, 0x00, 0x00, 0x00, 0x00, 0x19,
  0x02, 0x00, 0x00, 0x00, 0x00, 0x00, 0x0a, 0x00, 0x0c, 0x00, 0x07, 0x00,
  0x00, 0x00, 0x08, 0x00, 0x0a, 0x00, 0x00, 0x00, 0x00, 0x00, 0x00, 0x09,
  0x04, 0x00, 0x00, 0x00

};